, 136422485
the 134959001
<S_SEP> 116967006
. 113640674
to 65585138
of 62729501
a 57052636
and 54463274
in 52515688
`` 27320513
's 26961420
'' 26810175
said 23868954
that 23611063
for 22623604
on 20599726
The 19671741
is 18713114
was 18318200
with 15818828
at 12998829
as 12997437
he 12691953
by 12608768
it 12272984
from 11549017
his 10740359
have 10739877
be 10476007
has 10421102
an 9657213
are 9153899
not 8729622
I 8711237
who 7965298
-LRB- 7957587
-RRB- 7883766
were 7719252
had 7671132
will 7321055
but 6306749
they 6302993
their 6133607
would 6038920
been 6017717
which 5778869
' 5765921
its 5738836
this 5699046
or 5363711
after 5329067
more 5037091
-- 5024382
: 4931539
about 4900501
n't 4787587
one 4706464
up 4657841
two 4426679
It 4375881
out 4337571
also 4288684
_ 4115342
He 4075052
percent 4040405
year 4026355
we 4012016
But 3967359
people 3943143
when 3931482
than 3862884
last 3860883
first 3727227
In 3647664
her 3583669
over 3572147
government 3509533
all 3493013
into 3401546
do 3377732
other 3365142
could 3164711
$ 3128984
A 3114107
can 3114090
you 3076899
years 3030281
she 3018395
time 2991994
there 2989548
We 2966823
new 2925671
million 2925123
no 2916050
some 2901630
- 2747406
against 2728139
them 2698214
him 2582613
only 2559309
U.S. 2550902
if 2481549
three 2417320
what 2400002
before 2385696
did 2380896
because 2379348
just 2301778
United 2273023
so 2265815
like 2259680
told 2256482
New 2177740
since 2134988
most 2100218
where 2068665
down 2019863
now 2010761
country 1991292
week 1982785
officials 1961969
off 1960966
made 1955864
back 1950129
` 1928212
any 1893518
Tuesday 1870403
Wednesday 1849401
Thursday 1809524
Monday 1804882
police 1802226
Friday 1790317
many 1777057
between 1774849
They 1773832
state 1757814
while 1732022
get 1723924
our 1713847
billion 1713628
day 1712386
world 1704128
being 1703131
; 1682630
company 1672364
make 1651526
States 1647840
say 1619507
during 1612712
through 1587201
? 1572080
still 1565586
way 1563939
President 1539561
former 1528505
under 1522524
second 1521830
president 1508449
military 1489962
even 1489237
team 1489096
four 1481020
home 1475643
take 1475580
those 1475165
should 1474241
next 1471993
US 1462578
including 1461665
very 1458568
group 1451598
my 1438153
then 1437763
Sunday 1419679
going 1416244
much 1408125
such 1399923
says 1375348
And 1375178
how 1373488
American 1372629
10 1362506
This 1356826
work 1344190
end 1338503
There 1329998
well 1319118
man 1305345
here 1302519
month 1279757
another 1266751
may 1264345
part 1263796
go 1261765
Saturday 1256410
game 1251051
us 1242206
left 1238217
set 1237836
good 1231475
think 1231364
five 1224020
Iraq 1223971
're 1223144
China 1222826
around 1220123
York 1218099
killed 1206160
That 1205469
called 1203581
political 1201561
me 1200879
days 1200548
war 1198509
city 1196995
1 1193931
both 1172839
market 1165270
If 1165247
-@@ 1165107
South 1161475
Minister 1159245
official 1140206
points 1140202
want 1128860
months 1127531
security 1116975
Bush 1109236
came 1107914
public 1087953
does 1082609
right 1076096
season 1075103
expected 1074804
see 1074180
took 1067024
report 1057886
found 1045730
help 1037889
On 1033897
ago 1033650
added 1026608
won 1024118
World 1023692
later 1023563
Israel 1022506
know 1022365
court 1019796
news 1019764
long 1015515
spokesman 1014475
un@@ 1013029
same 1011870
top 1008170
used 1006250
international 1002838
own 989537
S@@ 987877
members 987788
saying 986159
several 982762
come 982053
countries 980698
reported 980365
European 980313
early 977775
win 973330
meeting 972429
statement 971023
party 970368
put 967577
play 967346
too 966865
dollars 966072
money 964403
six 959691
She 959543
leader 958529
place 951357
20 945655
2 942195
case 942043
least 937114
... 934136
until 930460
these 926466
past 923964
use 923963
support 917866
economic 915005
got 903802
never 903784
men 903489
T@@ 902201
without 901521
At 901103
family 899713
according 896415
talks 895965
Washington 895929
North 894685
foreign 888865
high 883471
chief 882111
late 881733
business 880902
life 880445
few 879212
night 877826
third 875267
i 874079
power 873693
led 872850
children 864665
leaders 862640
B@@ 860016
companies 859552
among 857584
've 857444
re@@ 852669
troops 852158
held 850951
whether 850705
number 846278
'm 844708
major 844484
already 841872
House 839199
women 836777
forces 834782
o 831805
As 830932
best 827574
might 824848
peace 824750
Russia 824239
15 822748
30 822361
Clinton 822348
each 822291
Japan 819278
head 818287
away 816040
need 814502
K@@ 812812
law 812591
little 811776
national 810190
hit 808083
attack 807683
deal 805801
oil 805246
recent 805242
far 803183
Israeli 799711
11 799213
P@@ 797428
run 790864
final 786606
earlier 786399
must 786264
British 785415
able 784480
campaign 784298
For 779882
D@@ 778852
show 777972
less 777304
3 774446
office 773985
went 772856
capital 772690
your 770582
decision 770406
John 769706
France 765584
plan 764515
G@@ 764242
lead 762453
When 761427
12 754119
give 752122
point 751385
M@@ 750062
minister 749187
began 742333
Palestinian 741464
lost 741242
French 740756
attacks 738954
death 737321
k@@ 735535
half 729684
near 728812
National 728336
economy 728213
lot 727614
area 724173
close 722226
You 718102
better 717562
local 714975
weeks 714413
West 710980
C@@ 708648
move 705938
again 702824
side 701182
A@@ 700229
system 698782
start 696285
every 695815
er 693828
big 691855
players 688954
trying 685403
prices 682299
After 680165
become 678988
One 678196
F@@ 678067
4 677621
taken 675852
making 674967
asked 674052
really 673805
nation 673097
force 672701
Russian 670764
region 669247
Cup 667843
Bank 667322
record 663862
rights 662853
whose 661133
announced 659087
games 658573
shot 658176
director 657758
in@@ 657015
vote 656078
nuclear 654234
State 654150
line 653640
H@@ 651695
school 649094
died 648742
financial 648713
L@@ 646989
5 645278
fell 644944
agency 644857
Korea 641583
control 639452
authorities 639391
de 633099
issue 627260
N@@ 626688
enough 625486
opposition 625312
seen 624861
trade 624254
election 623640
keep 622709
March 622612
America 622107
return 621525
son 620454
groups 619342
known 619293
federal 618790
town 618261
behind 618074
plans 617037
program 614273
others 613713
R@@ 611180
times 611019
miles 610543
His 608403
May 607579
E@@ 606554
match 606362
seven 604085
U.N. 603971
June 602340
agreement 601968
50 601375
per 600977
minutes 597920
Prime 597653
small 597568
Some 597271
possible 595622
something 595553
great 595552
along 594660
sales 594603
though 594111
hours 593573
likely 592694
W@@ 592281
following 592253
information 591965
strong 591800
health 591349
outside 590502
played 590142
Germany 589619
25 588590
rose 587029
car 586872
member 585269
face 583216
Europe 582921
cut 582746
change 582190
taking 580899
nearly 580685
elections 580179
workers 578336
India 575287
across 573617
6 572275
victory 572233
conference 571668
City 571434
With 569757
given 568330
find 568318
house 567795
g@@ 567186
ahead 566876
t@@ 566743
visit 565878
open 565641
free 565128
air 565028
things 563151
d@@ 562713
en 562259
Iran 561504
es 560849
pay 560272
general 559705
EU 559513
am 558325
important 557963
working 557927
Britain 557299
bank 556873
By 555958
look 552704
television 552438
soldiers 551857
clear 551530
Chinese 550504
industry 550097
gave 549684
once 549214
eight 549016
share 549006
believe 548212
O@@ 548117
Pakistan 546944
administration 546452
100 545913
job 545831
s@@ 543858
key 542614
today 542108
Department 540941
rate 540751
weapons 540179
violence 539761
call 539541
July 538704
y@@ 538468
series 537650
fire 537150
14 537055
interest 536687
International 535332
wanted 534924
further 534755
8 534052
continue 533861
April 533857
13 533765
Union 533498
s 532110
policy 531567
7 531554
water 531045
future 530278
problems 529900
University 529861
40 529424
England 529025
media 528203
Obama 527978
18 525555
yet 525241
process 524841
main 524312
released 523881
almost 523664
'll 523542
always 521649
White 521513
army 521071
old 520725
coach 520121
round 518545
within 518204
ers 517915
Iraqi 517874
action 517501
race 517323
goal 516189
o@@ 515768
accused 514769
growth 514114
hard 513400
16 513385
try 513072
V@@ 512642
reports 512559
young 511145
charges 510879
z@@ 510787
sent 509285
field 508967
human 507939
often 507729
p@@ 505836
having 505073
agreed 503153
building 502771
Congress 501601
service 500122
ing 498425
ca 497825
name 497775
en@@ 497638
meet 496720
ever 496658
due 496011
done 495702
started 495471
largest 494890
al 491735
senior 491148
woman 491104
large 490611
e 490509
What 490466
fighting 489704
current 489029
Japanese 488986
based 488817
Party 488372
reporters 488177
site 488164
y 485937
David 485723
executive 485529
k 485053
Australia 483514
issues 479854
London 479065
quarter 478681
efforts 478593
crisis 478140
problem 477735
different 477114
J@@ 476625
George 476033
I@@ 475537
himself 475086
shares 475019
thing 474800
17 474265
leading 473777
dollar 472980
arrested 472016
stock 471150
trial 470873
German 470225
order 469476
defense 469027
Republican 468602
however 467870
yen 466952
tax 465853
thought 465653
So 465535
coming 463890
level 463686
Africa 462912
1.@@ 462900
price 462498
history 461799
e@@ 460650
No 460612
An 460082
role 458069
While 457581
central 457236
t 457097
3@@ 456410
Afghanistan 456175
increase 454478
pressure 453661
border 452342
er@@ 452330
real 452080
aid 451552
u 451330
looking 450591
southern 449854
became 449228
together 449068
Council 448755
land 448414
received 448355
East 448099
dlrs 447988
San 447851
ed 447071
getting 446696
full 446526
January 445273
board 445179
morning 445141
h@@ 443228
December 443050
Americans 442303
presidential 442119
situation 442088
f@@ 441769
food 441628
9 441553
wife 441446
course 441241
playing 441201
v@@ 440998
recently 440354
scored 440184
September 439816
dead 439754
b@@ 438993
hold 438360
hope 438312
Islamic 438071
Democratic 437999
body 436982
Police 436742
closed 436272
stop 436244
failed 436226
.@@ 435345
age 435192
despite 434229
higher 433894
Security 433822
met 433217
showed 432321
NATO 432293
u@@ 430924
states 430195
turned 430175
using 429149
doing 428487
All 427758
Senate 427712
newspaper 427301
j@@ 427069
investors 426739
tried 425683
n@@ 425384
biggest 424180
fight 422030
ended 421864
al-@@ 421525
However 420981
front 420749
Foreign 420395
private 419862
thousands 419597
Michael 419433
saw 417832
Court 417811
24 416442
News 416340
care 415941
beat 415482
an@@ 413436
position 412954
player 412159
father 412076
why 412048
period 412017
November 410957
m@@ 410138
rebels 408908
US$ 408744
let 408245
total 407992
Y@@ 407451
Texas 406935
center 406504
nine 406191
loss 405558
kind 405516
feel 405158
19 403900
areas 403486
leave 403260
fourth 403053
involved 402785
special 402672
global 402354
needed 402315
community 401655
Z@@ 401293
running 400307
investigation 400138
interview 399160
UN 398833
ate 398754
include 398613
c@@ 398225
remain 398085
latest 397859
evidence 397608
League 397573
results 397013
allowed 396842
4@@ 396530
trading 395464
chance 395059
black 395033
wants 394220
test 393691
chairman 392747
offer 392642
comes 392325
22 392047
signed 391504
60 391276
brought 390893
ball 390522
hospital 390387
No. 389955
al@@ 389140
low 388619
w@@ 388347
cost 388244
October 388091
killing 388044
soon 387778
manager 386514
ch@@ 386441
markets 385214
bring 385175
nothing 385113
California 385085
rates 384774
To 384306
press 384175
northern 383952
7@@ 383937
prime 383686
prison 383601
legal 383457
hand 383137
services 382669
live 382386
fall 382294
room 382234
cases 382212
21 382003
allow 381148
gas 380963
book 380947
provide 380832
drug 380582
reached 380174
injured 380060
lower 379928
toward 379777
mother 379645
ar@@ 379034
previous 378238
students 378136
fact 377066
result 376791
Last 376370
career 374658
person 373602
/@@ 373285
bad 373194
Press 372787
Now 372639
bill 372525
decided 372457
6@@ 372308
parliament 371944
effort 371891
warned 371848
African 371768
el@@ 371694
appeared 370994
demand 370774
release 370309
ground 369503
AFP 369114
difficult 369109
Al@@ 368844
sure 368835
8@@ 367830
helped 367786
film 367194
l@@ 367085
& 366432
serious 366354
average 366333
base 366027
immediately 365410
teams 365255
parties 363966
turn 363521
budget 363420
forward 363299
Nations 363107
question 362834
moved 362081
Mexico 362055
club 361221
forced 361148
2000 360805
list 360555
ar 359968
ruling 359773
anything 359194
Internet 359135
weekend 357821
Italy 357746
'd 357029
probably 356896
remains 356567
on@@ 355705
event 355556
spent 355181
TV 354974
buy 354437
Hong 354136
story 353682
scheduled 353597
5@@ 353480
Palestinians 353307
Corp. 353275
Two 352721
Democrats 352400
Secretary 352325
worked 352199
lives 351685
officers 351666
step 351513
winning 350239
condition 350125
ti@@ 350021
kilometers 349861
index 349796
continued 349657
August 349577
nations 349101
Inc. 348799
calls 348528
charged 347939
b 347035
makes 346482
General 346391
Center 346365
production 346285
although 345650
investment 345552
title 345498
opening 345475
planned 345321
23 345320
claimed 345238
believed 344880
operations 344770
Kong 344490
short 344449
spending 343612
February 343591
Florida 343323
firm 342694
i@@ 342081
jobs 341495
el 341370
m 340757
energy 340635
staff 340117
opened 339448
Paul 339325
! 339323
ation 339301
banks 338743
majority 338450
form 338128
comment 336958
themselves 336726
rest 336267
War 335809
training 335378
summer 335261
champion 333909
runs 333725
means 333510
2@@ 333399
dis@@ 333274
talk 333265
adding 333203
cents 333110
inside 332991
e-@@ 332774
Indian 332572
Group 332452
minute 332251
contract 332103
1998 331883
break 331728
26 331697
especially 331238
stay 331007
U@@ 330573
available 330522
development 330444
Times 330111
sign 329682
sides 328679
child 328256
Spain 327936
committee 327231
Australian 327228
growing 327128
similar 327071
ministry 326822
Atlanta 326766
27 326719
officer 326527
st@@ 326515
included 325710
paid 325599
strike 324749
province 324171
victims 324134
needs 323084
refused 322478
a@@ 322093
road 321748
research 321359
Mar@@ 321351
coalition 321322
charge 321258
Muslim 320830
p 320824
28 320770
fans 320575
Los 320433
wrote 320243
bid 320083
negotiations 320048
Many 319907
Korean 319795
reach 319717
9@@ 319166
daily 318749
study 318651
medical 318201
2001 317621
0.@@ 317596
Arab 317081
matter 316904
Street 316827
ts 316047
relations 314927
followed 314917
named 314911
single 314820
returned 313682
Even 313678
de@@ 313333
Taliban 313015
south 312184
rather 311751
worth 311311
radio 310460
voters 310111
raised 310021
Asia 309994
rise 309682
ting 309662
1996 309391
Gaza 309071
analysts 308447
1994 308324
either 308222
Robert 308143
ating 307939
ready 306957
plane 306926
costs 306767
ated 306620
living 306530
it@@ 306454
league 306009
denied 305989
stage 305043
militants 304514
technology 304312
People 304306
details 303883
claims 303563
hundreds 302909
north 302577
civil 302478
phone 302388
island 302164
at@@ 301995
Jones 301826
judge 301783
white 301656
Olympic 301428
everything 301160
considered 301116
term 300964
seeking 300856
31 300395
200 300283
personal 299987
parents 299602
dropped 299554
friends 299409
risk 298783
es@@ 298438
quickly 298421
70 298189
Canada 297541
rule 297438
concerns 296781
arrived 296609
wo 296566
Angeles 296535
In@@ 296361
di@@ 295805
homes 295672
Beijing 295304
itself 295205
summit 295157
caused 294719
Turkey 294678
conditions 294657
Baghdad 294231
sold 294134
music 294074
fired 293726
over@@ 293642
longer 293372
James 293292
ties 292603
couple 292264
annual 291587
g 291279
threat 291206
rules 291028
computer 291010
feet 290878
offered 290738
heart 290550
idea 290372
issued 290320
Associated 290168
potential 290089
terrorist 289944
mission 289617
heard 289329
tournament 289194
ra@@ 289069
huge 288849
bomb 288684
figures 288630
kept 288490
finished 288369
2002 288181
questions 287742
products 287551
ha@@ 287063
Co. 286972
families 286868
measures 286030
Boston 285921
funds 285860
giving 285814
2.@@ 285785
Republicans 285538
Asian 285441
poor 285149
am@@ 285149
Open 284832
station 284680
residents 284669
Most 284663
trip 284460
quoted 284399
1995 284255
operation 284143
ordered 283851
29 283771
stocks 283642
project 283574
hopes 283429
compared 283402
light 283383
confirmed 283243
sell 282646
lawyer 282534
reason 282524
Paris 282513
35 282504
80 282306
cause 282182
1999 281948
Sept. 281664
armed 281306
data 280832
broke 280495
terrorism 280387
More 280225
shows 280088
declined 280086
hour 279767
star 279681
Service 279354
video 279221
felt 278458
performance 278420
union 278402
Ch@@ 278220
Bill 278067
changes 277753
Association 277230
r@@ 277226
love 276789
amid 276776
begin 276686
goals 275748
carried 275332
view 275125
letter 274941
Moscow 274863
Italian 274774
straight 274723
Although 274535
le 274477
2003 273921
terms 273898
safety 273643
My 273332
Smith 273318
leaving 272933
Ar@@ 272899
response 272842
1997 272729
Williams 272490
whole 272284
tell 272056
2004 271729
wounded 271359
conflict 271353
concern 271152
popular 271150
speech 271138
movie 270712
employees 270691
space 270466
Committee 270259
n 270130
particularly 270057
z 269268
exchange 269043
or@@ 268981
net 268674
knew 268502
le@@ 268481
described 267995
remained 267729
increased 267716
seems 267444
estimated 267349
alleged 267306
network 267219
ethnic 266756
St. 266667
competition 266299
experts 265957
0 265935
ri@@ 265871
independent 265840
Since 265496
supporters 265472
hands 265239
45 265132
ted 265072
h 265044
happened 264786
cars 264508
Ministry 263939
Web 263559
bit 263335
attempt 263152
social 263127
90 262914
candidate 262909
example 262713
domestic 262538
expect 262479
These 262423
parts 262377
urged 262101
W. 262085
message 261570
build 261482
travel 261471
Johnson 261208
programs 260844
Brown 260640
Commission 260584
ro@@ 260457
Tokyo 260095
gold 259705
airport 259565
sh@@ 259531
heavy 259475
th@@ 259337
population 259256
l 259228
instead 259168
Western 258979
pass 258421
create 258193
act 257375
king 257302
Arafat 256651
ban 256438
someone 256384
access 256201
d 255980
ac@@ 255339
launched 255189
starting 255171
vice 254941
football 254925
ways 254838
ter 254785
arms 254709
Both 254568
figure 254455
spokeswoman 254240
anti-@@ 253630
Mo@@ 253554
certain 253536
murder 252594
ran 252562
Kosovo 252427
der 252375
profit 251969
movement 251875
500 251866
attention 251438
Saddam 251378
ministers 251289
success 251184
drive 251133
holding 251000
pounds 250800
experience 250753
suspected 250682
p.m. 250538
Then 250479
crime 250211
proposed 249475
winner 249416
gone 249096
intelligence 248867
arrest 248841
St@@ 248793
discuss 248781
stand 248524
Richard 248441
afternoon 248031
ton 248025
analyst 247808
missing 247796
passed 247680
moving 247664
regional 247617
incident 247403
ag@@ 247052
County 246815
moment 246798
Jewish 246592
sources 246560
daughter 246543
credit 246503
debt 246228
flight 245573
debate 245190
tough 245169
protest 244804
proposal 244781
takes 244727
illegal 244720
events 244675
II 244610
published 244189
as@@ 243913
Army 243789
battle 243767
commission 243721
joined 243619
above 243421
ley 243401
schools 243348
candidates 243259
husband 243255
rebel 243136
built 243113
crowd 243046
According 242489
Taiwan 242332
includes 242211
Mark 241995
tour 241986
camp 241935
2006 241894
os 241890
sense 241850
Sh@@ 241828
Lee 241673
il@@ 240829
anyone 240358
hearing 240334
De@@ 240220
church 240211
approved 240205
emergency 240124
decades 240074
organization 239973
Bo@@ 239687
spoke 239662
fund 239575
Red 239279
looked 238989
district 238728
currency 238631
raise 238332
whom 237899
prevent 237781
effect 237736
Federal 237695
damage 237634
Serb 237459
suicide 237280
seemed 237118
King 236954
Central 236950
currently 236598
ad@@ 236368
mostly 236198
Chicago 236173
value 235843
injury 235832
2005 235389
calling 235365
session 235237
governor 235215
claim 235050
Another 235049
beginning 235029
em@@ 234803
suffered 234686
earnings 234565
range 234428
track 234415
join 234262
focus 234073
created 233800
Saudi 233759
religious 233350
worst 233220
sanctions 232604
crimes 232576
confidence 232439
telephone 232404
Brazil 232280
works 231564
Martin 231467
se 231432
source 231333
ab@@ 231323
ruled 231141
Car@@ 231128
disease 231007
Bosnian 230871
positive 230853
common 230566
losing 230315
read 230297
send 230082
address 229916
Hamas 229771
post 229762
changed 229675
civilians 229576
treatment 229333
friend 229214
ly 228989
expressed 228787
aimed 228539
joint 228467
progress 228108
r 228084
goes 227798
red 227589
Spanish 227581
everyone 227279
appeal 227221
shooting 227147
numbers 226271
seconds 226066
co@@ 225925
Air 225836
Bar@@ 225552
protect 225406
c 225062
yards 224748
Middle 224721
bombing 224662
words 224498
fear 224386
powerful 224343
drugs 224233
sports 224135
date 224106
laws 223935
cuts 223838
education 223814
born 223642
speaking 223621
Our 223528
1993 223351
ates 223307
avoid 223232
concerned 222873
attorney 222772
An@@ 222635
fuel 222523
deputy 222379
Defense 222292
else 222280
ans 222193
separate 221884
2008 221805
English 221576
3.@@ 221563
search 221409
eastern 221370
fully 221281
leadership 220984
rejected 220870
secretary 220749
twice 220556
significant 220499
rival 220359
ner 220313
scene 219945
Under 219866
1,000 219852
ic@@ 219639
challenge 219489
target 219140
plant 219025
cash 218967
impact 218807
drop 218688
stopped 218448
suggested 218301
declared 218167
ad 218167
Justice 218075
ine 217845
resolution 217616
territory 217555
opportunity 217494
consider 217447
penalty 217422
served 217170
ask 217046
simply 217014
im@@ 216855
ship 216451
bodies 216436
Wall 216426
present 216415
amount 216373
noted 216370
art 216202
carrying 216177
ant 216123
CNN 216081
management 215435
foot 215415
lo@@ 215359
lawyers 215278
practice 215246
wrong 215243
Meanwhile 215222
customers 215198
300 215101
Lebanon 215016
Bosnia 214919
Mike 214594
ling 214249
Thomas 214135
street 214000
aircraft 213934
Despite 213905
Dr. 213826
Zealand 213771
ally 213639
filed 213624
Park 213525
sector 213435
actually 213387
fifth 213378
votes 213071
happy 212995
selling 212939
department 212863
overall 212783
happen 212678
Peter 212306
1992 212223
seats 212202
cities 212130
si@@ 212059
council 212003
sale 211927
B 211743
necessary 211720
32 211571
lines 211543
struck 211426
rising 211341
regime 211301
Sen. 211285
lack 211106
independence 211022
euro@@ 210931
Indonesia 210908
non-@@ 210660
unit 210611
is@@ 210600
During 210549
boy 210470
protests 210239
ability 210107
streets 209815
responsible 209776
century 209740
paper 209622
responsibility 209530
Ireland 208947
criminal 208808
Ro@@ 208730
nearby 208710
mean 208704
village 208701
alone 208675
construction 208614
carry 208599
comments 208538
1991 208521
serve 208456
account 208299
elected 207907
losses 207897
ones 207840
throughout 207476
ch 207282
threatened 207196
provided 206801
equipment 206698
Singapore 206696
Georgia 206459
se@@ 205988
related 205958
inflation 205918
2007 205671
polls 205524
mark 205511
blood 205439
ations 205356
Afghan 205195
li@@ 205037
Con@@ 205017
prepared 204244
brother 203965
hotel 203835
politics 203569
reform 203373
Exchange 203302
finish 203223
committed 202876
sought 202812
identified 202731
lawmakers 202725
levels 202680
Not 202269
complete 202119
commercial 202010
Jordan 201649
sites 201608
easy 201594
headed 201531
f 201415
faces 201347
draw 201314
Other 201258
caught 201153
finally 201145
euros 201099
Gore 201007
75 200903
mis@@ 200865
decade 200864
finance 200820
millions 200806
giant 200727
east 200682
accept 200488
Re@@ 200280
lose 200226
income 200148
highest 199410
businesses 199153
Gulf 198825
Those 198604
et@@ 198440
la 198354
largely 198259
quite 198258
operating 198233
addition 198127
Serbs 198114
ey 197843
Mr 197835
word 197768
deep 197753
Soviet 197699
property 197690
mo@@ 197632
talking 197534
Co@@ 197504
be@@ 197431
patients 197393
pretty 197242
a-@@ 197226
relationship 197013
understand 196922
da 196765
western 196759
ds 196568
matches 196539
doctors 196511
About 196487
legislation 196411
governments 196399
vehicles 196131
immediate 195948
convicted 195753
injuries 195591
ed@@ 195418
insurance 195186
settlement 194974
GMT 194904
beyond 194785
apparently 194707
cooperation 194703
sp@@ 194622
double 194592
95 194576
cover 194545
sometimes 194169
Syria 193590
request 193534
promised 193352
36 193253
ent 193148
headquarters 193141
Republic 193107
seek 192974
measure 192818
33 192761
et 192664
ou@@ 192643
improve 192622
allegations 192478
Egypt 192428
Her 192268
mass 192151
conservative 192117
documents 192113
Supreme 191988
division 191925
Har@@ 191882
student 191804
seem 191042
deaths 190915
Tom 190888
to@@ 190804
refugees 190749
announcement 190743
C 190554
captain 190395
table 190099
missed 190009
34 189908
bo@@ 189900
product 189899
admitted 189890
appear 189754
entire 189629
signs 189599
era 189594
written 189566
showing 189442
train 189366
approach 189273
wide 189162
Kim 189101
bought 189060
natural 188998
gets 188935
hurt 188912
consumer 188703
choice 188612
guard 188512
evening 188510
th 188278
Mc@@ 188271
citizens 188116
tests 188080
bin 188018
seat 188013
ler 188012
ol@@ 187896
style 187794
warning 187663
reduce 187569
below 187476
ks 187391
placed 187305
driver 187058
remaining 186963
true 186893
corporate 186726
Jackson 186689
row 186665
college 186529
online 186497
Still 186450
D 186414
owner 186340
watch 186305
Christian 186223
traditional 186218
mind 186185
prosecutors 185856
guilty 185815
Swiss 185374
McCain 185249
Stock 185197
Three 185104
First 185093
review 185025
activities 185013
safe 184905
zone 184897
presence 184803
designed 184731
additional 184611
rally 184483
blamed 184467
Thailand 184445
planning 184233
save 184067
plays 183948
ard 183891
required 183869
Turkish 183830
insisted 183804
18@@ 183568
38 183497
fears 183300
y-@@ 183295
ee 183023
offensive 183010
massive 182856
Di@@ 182824
ani 182813
pulled 182785
corruption 182743
receive 182682
backed 182301
ensure 182191
ina 182166
policies 182041
shots 181977
Ms. 181928
diplomatic 181861
euro 181839
ons 181750
democracy 181729
v 181684
owned 181596
55 181550
spot 181479
floor 181365
spend 181330
Day 181228
0@@ 181192
als 181190
anonymity 181004
ice 180991
ana 180722
size 180691
Games 180383
crew 180331
girl 180191
passengers 180054
Francisco 180028
greater 180024
perhaps 179700
critical 179696
out@@ 179683
poll 179453
push 179433
status 179361
usually 179356
s-@@ 179238
cancer 179184
score 179060
um 178971
waiting 178919
ending 178885
decide 178863
/ 178823
successful 178650
criticism 178626
Earlier 178616
How 178572
om@@ 178361
limited 178338
looks 178337
store 178322
linked 178198
Charles 178155
Canadian 178029
bus 178026
ur@@ 177977
door 177976
boost 177794
gained 177722
books 177609
us@@ 177554
terror 177526
ic 177467
x 177338
strategy 177276
commander 177026
ec@@ 177001
Hussein 176996
host 176848
names 176780
4.@@ 176609
justice 176495
.com 176414
journalists 176221
a.m. 176062
Al 175971
steps 175900
dispute 175803
eventually 175619
65 175512
ne@@ 175385
labor 175314
dozen 175151
agencies 174911
benefits 174819
port 174796
heads 174749
Mon@@ 174725
Their 174505
Among 174345
certainly 174231
fine 174099
400 174085
crash 173959
48 173870
defeat 173859
spread 173800
ker 173762
traffic 173669
Trade 173589
suspects 173441
previously 173373
William 173318
Steve 173261
Olympics 173242
driving 173232
kids 173115
t-@@ 173099
weather 173070
Health 173039
jail 173034
meetings 173029
class 172796
37 172652
revenue 172629
vs. 172487
deficit 172436
voted 172350
knows 172250
allegedly 172240
appears 172173
ya 172067
1990 171466
ke 171390
respect 171387
advantage 171110
approval 170958
faced 170897
executives 170786
Agency 170666
draft 170514
direct 170481
Jerusalem 170382
panel 170326
innings 170320
guy 170221
ka 170130
ko 169878
Iranian 169798
sex 169726
west 169634
Also 169542
projects 169528
partner 169507
places 169395
industrial 169221
Pacific 168975
recovery 168903
magazine 168857
Microsoft 168630
possibility 168559
te 168519
launch 168463
produced 168346
From 168099
Of 168041
putting 167893
agents 167770
supply 167651
professor 167563
civilian 167523
authority 167246
guys 167210
grew 167128
loans 166972
agree 166940
Bob 166899
under@@ 166751
suspended 166713
trouble 166686
Vietnam 166450
failure 166359
actions 166317
vehicle 166304
Jose 166251
version 166232
pre@@ 166054
po@@ 166008
En@@ 165929
believes 165802
basis 165475
managed 165438
ding 165406
ge 165326
detained 165218
fighters 165210
software 165073
setting 165015
buying 164966
facing 164889
ous 164851
stood 164826
helping 164704
pe@@ 164642
completed 164640
hear 164594
qu@@ 164565
storm 164496
School 164483
Sch@@ 164439
no@@ 164399
Sri 164319
records 164140
championship 163890
O 163867
um@@ 163847
accident 163767
speak 163758
houses 163692
sentence 163673
gain 163524
middle 163483
assets 163403
systems 163384
Ali 163370
st 163306
Bay 163231
kill 163153
6-3 163102
coast 163065
Argentina 162996
Institute 162907
occurred 162652
les 162621
fast 162608
Dutch 162578
Le@@ 162490
Malaysia 162436
decline 162288
allies 162274
re-@@ 162187
opposed 162115
meant 161854
secret 161704
Jan. 161586
prisoners 161491
attacked 161457
activity 161433
answer 161392
E 161347
Grand 161313
scoring 161306
reasons 161206
willing 161198
gun 161175
language 161066
allowing 161060
clearly 161035
interests 161022
ak 161007
positions 160945
Davis 160911
lived 160906
go@@ 160804
6-4 160777
widely 160766
individual 160757
cast 160676
increasingly 160616
contact 160571
alliance 160562
demands 160547
42 160436
fellow 160316
spring 160264
con@@ 160232
housing 160206
Houston 160198
ceremony 160180
Cox 160101
ul@@ 160081
rescue 159995
contributed 159855
God 159662
dangerous 159552
package 159495
seized 159454
Po@@ 159382
Chris 159233
consumers 159185
pl@@ 159079
Ko@@ 158983
Catholic 158969
Blair 158955
relief 158947
stake 158894
regular 158778
ni@@ 158743
Oct. 158608
gains 158457
suspect 158400
THE 158315
pick 158273
keeping 158165
AP 158100
protesters 158054
sc@@ 158037
ings 158008
missile 157908
FBI 157873
Par@@ 157828
taxes 157804
Madrid 157728
reforms 157627
ty 157581
ell 157521
L 157513
ia 157357
ah 157204
Scott 157202
shown 157143
meters 157117
5.@@ 157098
Tony 156881
buildings 156828
Just 156813
44 156455
becoming 156428
Cuba 156277
produce 156269
Th@@ 156213
voting 156212
Net 156212
x@@ 156211
developing 156199
Dec. 156030
------ 156007
various 155999
fresh 155934
Ford 155821
INC. 155791
rich 155770
Milosevic 155745
survey 155734
El@@ 155629
39 155575
exports 155561
investigators 155534
leg 155518
original 155417
earned 155328
crude 155172
offering 155157
politicians 154988
profits 154962
slow 154830
image 154811
freedom 154777
developed 154721
follow 154617
self-@@ 154500
S 154493
dozens 154094
hoped 154048
card 154002
Gen. 153769
ong 153752
banned 153628
one-@@ 153559
society 153539
continues 153492
Man@@ 153436
standards 153207
baseball 153163
Kar@@ 153034
do@@ 152986
green 152866
er-@@ 152853
43 152790
maker 152755
criticized 152598
quality 152513
gives 152485
entered 152441
Abu 152438
acknowledged 152400
Office 152345
subject 152297
smaller 152044
airline 152001
onto 151955
per@@ 151881
Muslims 151867
abuse 151826
Christmas 151698
speed 151655
T 151646
Lo@@ 151557
extra 151545
Tour 151529
M 151505
posted 151316
unless 151236
H 151214
Putin 151188
standing 151145
h-@@ 151047
develop 151015
ho@@ 150904
repeatedly 150846
car@@ 150634
Coast 150540
orders 150527
Per@@ 150509
al-Qaida 150419
Sharon 150403
protection 150380
accounts 150169
goods 150156
ai 150153
# 150150
fled 150148
Joe 149955
Greece 149920
discovered 149890
Cabinet 149612
voice 149609
sed 149563
10@@ 149535
captured 149526
Pakistani 149464
Serbia 149450
jury 149427
influence 149248
firms 149057
fair 149049
F 148968
Jersey 148905
Jim 148823
thinking 148806
Sweden 148713
Do 148604
op@@ 148552
retired 148536
normal 148517
slightly 148392
militant 148312
affected 148301
46 148290
initial 148278
bi@@ 148195
picture 148187
doubt 148143
Netanyahu 148135
destroyed 148055
ak@@ 148029
sexual 147991
flights 147851
Li@@ 147847
material 147843
eyes 147826
est 147817
Hill 147756
supplies 147724
directly 147550
id@@ 147499
particular 147456
attend 147371
overnight 147339
surgery 147235
rain 147147
mayor 147118
feeling 146926
Today 146888
serving 146792
Yeltsin 146787
culture 146763
tied 146630
broken 146571
bed 146519
owners 146502
chances 146368
opinion 146225
Miami 146224
handed 146217
stores 146193
2,000 146116
ves 146106
asking 146105
block 146100
Su@@ 146019
page 145886
Carolina 145875
pushed 145652
violent 145640
Poland 145578
affairs 145556
Nov. 145538
man@@ 145534
Only 145530
agent 145505
increasing 145378
co-@@ 145314
determined 145223
seriously 145198
continuing 145133
terrorists 145111
High 145073
41 145072
die 144978
solution 144974
Force 144956
ill 144859
Before 144837
sport 144826
10-@@ 144730
sentenced 144708
Arizona 144706
decisions 144691
active 144689
Instead 144627
picked 144522
supported 144361
cent 144209
gu@@ 144163
G 144155
suit 144144
acting 143897
ai@@ 143886
ano 143879
pro@@ 143839
assault 143705
visited 143606
parliamentary 143450
model 143440
expectations 143342
falling 143315
inter@@ 143308
hoping 143303
tie 143259
Powell 143222
5,000 143221
Al-@@ 143197
complex 143064
treaty 142992
sea 142884
Ho@@ 142849
1-@@ 142849
activists 142835
Kennedy 142761
wait 142552
sound 142482
on-@@ 142367
demanded 142308
pace 142247
explosion 142223
sixth 142022
Gu@@ 141967
R 141839
P 141777
ent@@ 141692
bar 141677
offices 141662
learned 141529
strength 141515
ing@@ 141443
critics 141376
reportedly 141342
telling 141298
blast 141228
47 141187
minority 141096
van 141070
Shiite 140994
Several 140924
yard 140896
boat 140843
box 140798
mainly 140685
52 140605
49 140597
Pro@@ 140480
ator 140397
organizations 140287
treated 140279
Parliament 140145
Q@@ 140031
sending 139888
offers 139818
que 139817
Dow 139754
hot 139676
highly 139627
2009 139604
unable 139546
determine 139538
ve 139503
audience 139410
primary 139362
Northern 139230
Officials 139197
girls 139178
shortly 139148
150 139103
ambassador 139058
planes 139036
closer 138904
stories 138713
Ukraine 138604
ps 138519
EST 138396
established 138368
Sha@@ 138333
85 138294
Mohammed 138277
intended 138200
stations 138116
upon 138116
yesterday 138097
3-@@ 138095
argued 137943
considering 137908
accord 137893
5-@@ 137885
ra 137869
holiday 137864
def 137694
ter@@ 137667
stars 137582
walk 137542
witnesses 137315
difference 137243
ci@@ 137180
environment 137069
Hall 136976
Cor@@ 136899
bringing 136842
surprise 136729
sort 136709
6-2 136657
Switzerland 136594
holds 136568
add 136488
unemployment 136474
suffering 136469
6.@@ 136390
attended 136332
sing 136273
eye 136270
walked 136195
wearing 136092
Louis 136041
watching 135995
Yet 135964
banking 135868
assistant 135822
Israelis 135726
professional 135623
Greek 135553
OF 135534
Securities 135429
Czech 135209
Am@@ 135168
Its 135149
Fox 134986
commitment 134949
presidency 134845
ap@@ 134827
benefit 134732
fought 134730
married 134729
bombings 134551
squad 134520
Ber@@ 134519
hole 134434
involving 134387
maintain 134375
Col@@ 134329
marks 134114
shut 134090
advance 133980
two-@@ 133965
par@@ 133897
constitution 133661
pair 133655
ring 133594
resources 133424
2-@@ 133402
accepted 133399
closing 133314
Milan 133310
bond 133309
imposed 133294
controlled 133069
paying 133062
seeing 133040
Rep. 132999
Y 132983
embassy 132926
1989 132906
referring 132800
ta 132745
baby 132624
Organization 132617
nor 132611
raising 132576
Pentagon 132546
larger 132522
Mexican 132368
51 132165
Four 132162
cell 132128
Arabia 132120
ex@@ 132112
ut@@ 132101
X@@ 132073
ence 132062
worried 132026
ir@@ 132022
1@@ 131962
personnel 131816
indicated 131632
specific 131499
hits 131443
fi@@ 131420
focused 131138
worldwide 131029
heavily 131015
10,000 130990
Croatia 130914
completely 130748
grow 130657
Because 130655
arm 130590
7.@@ 130562
Zimbabwe 130525
54 130488
blue 130485
N 130437
soccer 130435
truck 130367
long-term 130332
forecast 130257
scandal 130239
Irish 130212
dismissed 130019
finding 130013
collapse 130001
require 129978
revealed 129926
opponents 129895
turning 129852
worse 129816
older 129773
Manchester 129760
replace 129748
piece 129676
expects 129626
edge 129601
enter 129550
conducted 129549
pledged 129502
moves 129500
targets 129453
Feb. 129445
plants 129357
Laden 129312
ite 129309
doctor 129282
threats 129209
end@@ 129181
scientists 129114
Fed 129108
fly 129095
Democrat 129078
victim 129071
Go@@ 129001
Aug. 128922
e-mail 128844
tr@@ 128817
prosecutor 128794
striker 128699
ver@@ 128669
returning 128659
ters 128630
appearance 128627
District 128548
prove 128538
ay@@ 128406
tions 128390
powers 128355
struggling 128326
67 128266
OPTIONAL 128243
ins 128231
veteran 128230
gathered 128168
Sea 128155
effective 128139
56 128125
ment 128118
marriage 127944
check 127939
count 127926
fiscal 127862
strikes 127767
-based 127723
vi@@ 127603
confident 127566
communist 127541
meanwhile 127537
Miller 127489
gi@@ 127306
favor 127268
article 127138
ang 127123
editor 127114
Ri@@ 127082
combat 127044
wall 126940
appointed 126847
remarks 126838
ary 126822
Social 126813
loan 126804
abroad 126795
Kansas 126791
rare 126748
fraud 126711
providing 126696
hi@@ 126652
di 126551
quick 126534
virus 126512
generation 126499
sub@@ 126499
Woods 126494
dominated 126457
learn 126435
balance 126388
http://www.@@ 126372
writing 126283
institutions 126273
disaster 126203
Cha@@ 126161
66 126155
soldier 126082
covered 126041
la@@ 126025
beating 125970
ity 125949
Daily 125928
crucial 125912
unlikely 125766
Green 125757
units 125731
watched 125711
bottom 125680
Labor 125640
easily 125619
weak 125537
broadcast 125515
three-@@ 125473
struggle 125437
humanitarian 125376
Pi@@ 125331
relatives 125330
Church 125304
partners 125245
Colorado 125236
band 125162
1,@@ 125113
ered 125099
Like 125092
Netherlands 125056
d-@@ 124978
type 124936
wood 124863
university 124858
ov 124846
marked 124801
capacity 124747
53 124736
ig@@ 124680
removed 124638
su@@ 124517
68 124513
environmental 124470
Ex@@ 124457
simple 124424
Yugoslavia 124403
Hollywood 124355
consecutive 124351
maybe 124307
interested 124259
reduced 124226
exactly 124179
ay 124160
park 124098
newspapers 124067
winter 123913
72 123885
perfect 123873
Mi@@ 123847
filled 123824
Premier 123774
so-called 123709
well-@@ 123705
eb@@ 123676
weight 123657
presented 123654
in-@@ 123619
towards 123584
1:@@ 123583
me@@ 123427
replaced 123424
destruction 123409
character 123359
Beach 123267
ski 123250
mile 123058
bar@@ 123005
Energy 122943
3,000 122942
58 122893
Nigeria 122870
secure 122848
toll 122723
END 122684
Human 122662
2010 122626
Detroit 122592
assistance 122558
immigration 122529
lawsuit 122509
improved 122424
supposed 122408
note 122399
task 122359
uses 122354
Virginia 122251
democratic 122238
Island 122235
pull 122201
den 122167
generally 122164
Philadelphia 122101
19@@ 122099
sets 122075
Lanka 122030
stability 122003
modern 121996
coverage 121944
stadium 121927
4-@@ 121874
limit 121814
Big 121687
percentage 121675
bl@@ 121655
diplomats 121601
Mr. 121596
Chief 121515
La 121453
marketing 121433
62 121352
57 121311
testing 121248
flying 121109
ino 120996
River 120993
Taylor 120960
bombs 120950
hitting 120932
Un@@ 120851
recession 120830
Massachusetts 120813
brief 120809
bonds 120756
Mal@@ 120653
apartment 120593
up@@ 120546
estate 120517
starts 120509
an-@@ 120481
sky 120458
delegation 120416
rivals 120414
Chavez 120409
remember 120252
sk@@ 120236
neighborhood 120129
min@@ 120101
courts 120004
der@@ 119980
myself 119978
Howard 119960
Du@@ 119885
tion 119872
ors 119871
Se@@ 119809
Ahmed 119808
Sudan 119779
combined 119773
discussed 119668
relatively 119663
female 119634
delivery 119624
Gov. 119613
Former 119599
representatives 119528
ance 119472
clients 119463
cited 119453
statements 119362
Daniel 119216
ze 119068
acts 119040
closely 119029
Van 118970
overseas 118950
coup 118848
Dole 118835
Why 118684
damaged 118482
anniversary 118416
plus 118399
cross 118362
cutting 118329
deadly 118278
users 118259
Ab@@ 118257
immigrants 118254
screen 118231
Egyptian 118194
Tehran 118134
Seattle 118133
64 118122
8-@@ 118065
severe 118047
du@@ 117945
famous 117908
pro-@@ 117774
Ohio 117734
attempts 117645
predicted 117634
visitors 117625
Dallas 117597
Hezbollah 117586
Manhattan 117540
formed 117518
Frank 117485
neighboring 117479
views 117467
farmers 117437
listed 117410
AIDS 117344
___ 117322
w 117243
ev@@ 117221
trust 117209
nature 117204
initially 117195
extended 117132
re 117124
writer 117117
drove 117089
Qu@@ 117069
missiles 117046
drawn 117040
drew 116894
conduct 116856
peaceful 116836
connection 116638
-L@@ 116505
Index 116486
republic 116472
emerged 116391
dealers 116387
Ad@@ 116277
ir 116240
ger 116225
deals 116141
contracts 116117
dialogue 116116
payments 116073
extremely 116043
-R@@ 116033
standard 116028
investigating 115999
begun 115899
Treasury 115873
Reserve 115845
1.5 115823
climate 115803
citing 115745
pain 115739
Do@@ 115734
Club 115726
El 115715
tourists 115680
63 115667
possibly 115619
favorite 115561
facilities 115485
boys 115461
Judge 115459
route 115410
demanding 115382
lies 115283
stepped 115224
wins 115223
Real 115196
6-@@ 115195
Yankees 115190
driven 115173
computers 115147
Post 115113
allows 115084
mer 115078
reading 115027
corner 115002
split 114994
ical 114988
tensions 114965
proposals 114940
Latin 114908
clashes 114877
advanced 114853
threw 114805
advertising 114794
pound 114782
Jr. 114779
enforcement 114770
historic 114730
deadline 114730
rec@@ 114725
Authority 114672
withdrawal 114639
square 114582
golf 114559
defending 114549
organized 114548
custody 114542
races 114458
Kevin 114452
stands 114448
involvement 114395
effects 114386
Colombia 114322
creating 114311
Once 114234
Abbas 114199
Barack 114115
ry 114035
clean 113977
traded 113949
technical 113875
section 113858
Com@@ 113835
wave 113754
reaction 113723
res 113693
Mrs. 113660
mon@@ 113598
options 113578
questioned 113571
Joseph 113553
alive 113541
resume 113525
9-@@ 113501
estimates 113496
Austria 113475
Black 113418
permanent 113358
danger 113285
sister 113251
medal 113218
Sal@@ 113215
defence 113204
ur 113183
heat 113147
direction 113133
ages 113131
funding 113127
La@@ 113101
Rice 113100
vowed 113024
complained 112994
Sp@@ 112958
Be@@ 112951
introduced 112936
7-@@ 112934
69 112804
links 112798
heading 112783
Philippines 112658
sharp 112636
signing 112606
Jo@@ 112602
Thai 112563
Prince 112559
Si@@ 112539
producer 112499
author 112463
controversial 112456
2012 112404
cold 112402
expensive 112333
leads 112250
responded 112181
internal 112170
Stadium 112166
ma 112148
seventh 112089
publicly 112027
helicopter 112017
So@@ 111992
fit 111948
agenda 111942
gay 111930
ships 111748
Jews 111737
design 111712
Lebanese 111693
none 111679
sitting 111635
Though 111621
Ne@@ 111575
inspectors 111558
pitch 111444
delay 111411
discussions 111382
1-0 111370
Southern 111360
widespread 111349
strongly 111324
fish 111320
items 111221
Andrew 111200
Valley 111182
movies 111138
NFL 111137
Super 111068
divided 111062
gh@@ 111052
collection 111024
aware 110966
tight 110953
congressional 110925
chemical 110922
mine 110911
stone 110891
ff 110854
reality 110602
resolve 110549
Bowl 110530
camps 110526
younger 110524
visiting 110520
No@@ 110493
fl@@ 110491
ru@@ 110452
judges 110342
Brian 110273
X 110155
600 110111
Sa@@ 110099
ne 110084
actor 110062
science 110055
99 110048
rock 110037
pushing 109979
ends 109968
cable 109922
College 109895
respond 109890
ach@@ 109864
Lewis 109862
electricity 109766
ads 109682
and@@ 109597
ren@@ 109564
59 109511
tons 109509
Mor@@ 109492
Chechnya 109463
Kashmir 109347
non@@ 109329
Jack 109241
Young 109221
ky 109221
Alexander 109207
av@@ 109197
bigger 109170
failing 109169
pilot 109158
va 109158
inning 109083
defeated 109046
delivered 108994
Chelsea 108891
2013 108818
schedule 108805
Ltd. 108705
ran@@ 108692
ki 108687
ver 108686
fun 108684
oc@@ 108600
restaurant 108581
transfer 108498
Kerry 108476
Bi@@ 108396
negative 108375
basic 108367
NBA 108313
defensive 108305
high-@@ 108197
800 108192
Royal 108141
farm 108096
tiny 108092
option 108091
Indonesian 108076
100,000 108059
Mu@@ 108027
Abdullah 108019
ingly 107979
ess 107957
expansion 107855
formal 107827
films 107778
shared 107747
breaking 107736
ery 107728
recalled 107676
causing 107589
Brazilian 107532
Bu@@ 107357
Kuwait 107341
na 107340
stronger 107255
att@@ 107182
basketball 107165
Champions 107152
Carlos 107074
blow 107047
Asked 107005
Board 106975
weekly 106971
1980s 106899
8.@@ 106885
sit 106847
everybody 106827
Rights 106827
GM 106779
wind 106725
Mer@@ 106696
ness 106679
AH 106668
flu 106667
physical 106630
seasons 106507
mid-@@ 106491
Hospital 106485
Eastern 106482
except 106451
61 106342
1990s 106283
com@@ 106274
ep@@ 106256
four-@@ 106224
Journal-Constitution 106048
preparing 106033
Islam 106013
makers 105986
towns 105982
testimony 105789
targeted 105781
studies 105700
existing 105661
9.@@ 105598
catch 105480
drivers 105455
casualties 105373
13@@ 105285
Me@@ 105272
roads 105272
Government 105084
Airlines 105061
friendly 104920
ber@@ 104916
jumped 104901
Atlantic 104862
vast 104841
benchmark 104798
Research 104736
Sydney 104668
wing 104660
fashion 104659
packed 104657
Rangers 104634
Stephen 104628
prompted 104567
barrels 104538
referendum 104481
happens 104467
ies 104466
differences 104443
dy 104361
animals 104343
herself 104312
expert 104268
ES 104263
fallen 104260
12@@ 104253
Patrick 104231
angry 104213
ah@@ 104213
invasion 104209
Min@@ 104207
downtown 104201
Scotland 104130
Development 104111
resort 104106
anger 104094
shareholders 104033
supporting 104018
competitive 104014
Gar@@ 103947
proved 103931
nationwide 103926
adopted 103857
defend 103829
adviser 103819
Musharraf 103812
Strip 103734
est@@ 103703
machine 103702
represents 103702
researchers 103694
Lake 103672
blocked 103601
Conference 103553
71 103540
sa 103530
shop 103468
birth 103429
surprised 103394
Myanmar 103385
changing 103375
har@@ 103305
ud@@ 103286
ys 103209
Boeing 103179
IN 103127
Iraqis 102968
mobile 102954
Wil@@ 102900
representative 102894
bu@@ 102825
trillion 102711
ang@@ 102678
hair 102664
guns 102642
sharply 102551
owns 102532
upset 102509
colleagues 102487
Bel@@ 102447
Ver@@ 102370
Fund 102369
Here 102341
A. 102270
centre 102248
images 102235
backing 102200
talked 102148
ning 102148
tic 102146
impossible 102127
As@@ 102122
ded 102078
pointed 102064
knee 101972
document 101940
Diego 101928
Is 101916
AN@@ 101882
unclear 101853
ving 101843
envoy 101784
barrel 101778
guards 101683
recovered 101675
begins 101675
premier 101672
receiving 101661
ranked 101649
degree 101633
'@@ 101626
Financial 101605
elsewhere 101580
halt 101538
af@@ 101529
restrictions 101452
Women 101420
guerrillas 101344
expand 101275
Berlin 101201
sat 101107
Belgium 101085
write 100973
ked 100959
eighth 100953
mixed 100950
2-1 100932
recorded 100919
passing 100876
ses 100872
blame 100785
ri 100684
Tim 100679
worry 100674
grown 100614
6-1 100596
k-@@ 100533
ten 100496
stayed 100492
athletes 100419
Venezuela 100413
Annan 100385
Championship 100374
Navy 100370
worker 100365
link 100347
insurgents 100327
To@@ 100307
Antonio 100305
lift 100249
ore 100228
raid 100156
kin 100119
compete 100060
affect 100052
ster 100001
whatever 99975
neither 99939
Portugal 99917
Analysts 99898
reaching 99889
Michigan 99851
Carter 99771
bridge 99770
communities 99731
mar@@ 99641
teacher 99624
features 99580
wake 99553
250 99553
speculation 99535
stressed 99409
all-@@ 99401
command 99391
Far@@ 99373
Henry 99272
risks 99155
nice 99142
Sar@@ 99128
defender 99123
francs 99117
ish 99102
Serbian 99077
controls 99020
Ben@@ 99005
Communist 98995
fewer 98968
via 98949
Chirac 98924
bills 98903
Khan 98894
tested 98892
prominent 98859
killings 98808
purchase 98797
choose 98733
survived 98711
apart 98678
Hu@@ 98657
Mary 98650
2-0 98638
clubs 98590
constitutional 98577
20@@ 98562
aw@@ 98541
located 98532
73 98473
provides 98465
berg 98436
explained 98404
ane 98393
tw@@ 98374
core 98314
kick 98302
96 98292
12-@@ 98279
Such 98235
Over 98076
easier 98048
crashed 98009
throw 97982
so@@ 97941
troubled 97866
promote 97859
minor 97852
dog 97818
brand 97805
retail 97790
sw@@ 97737
grand 97737
ph@@ 97731
sen 97681
ens 97679
te@@ 97649
17@@ 97634
ists 97632
J. 97611
Yugoslav 97565
Q 97560
hospitals 97546
ism 97546
streak 97524
Kenya 97517
Ben 97505
venture 97500
pictures 97499
76 97488
membership 97486
For@@ 97483
cards 97461
reporter 97371
retirement 97322
co 97310
promise 97298
leaves 97288
1988 97279
Wilson 97211
museum 97204
facility 97194
dark 97168
aside 97154
74 97091
2.5 97039
700 97014
champions 96965
truth 96840
debut 96833
greatest 96808
lay 96807
exercise 96754
faith 96695
US@@ 96631
convention 96621
Ham@@ 96559
economist 96524
explain 96518
diplomat 96512
file 96444
tens 96424
eg@@ 96398
poverty 96389
cease-fire 96379
detention 96376
remove 96339
EE 96289
Barcelona 96259
o-@@ 96221
Interior 96183
aggressive 96170
behavior 96168
auto 96167
Liverpool 96128
moderate 96117
virtually 96086
ering 96066
midfielder 96042
native 96025
Mil@@ 96024
confirm 96020
healthy 96011
path 95974
sparked 95948
ease 95904
repeated 95883
lie 95839
welcome 95818
Finance 95751
concluded 95687
ati@@ 95589
sees 95559
delayed 95533
cabinet 95499
Test 95478
to-@@ 95416
aged 95324
deliver 95312
unions 95188
cultural 95146
pieces 95118
scores 95112
agreements 95107
Or@@ 95011
Morgan 95004
award 94999
granted 94988
patient 94987
Bur@@ 94963
Administration 94935
78 94928
stuff 94870
strategic 94838
16@@ 94738
titles 94713
beaten 94657
brain 94629
apparent 94628
handle 94592
duty 94587
increases 94572
aboard 94564
compromise 94556
villages 94549
HERE 94545
invited 94539
NBC 94531
directed 94525
Kabul 94480
passenger 94473
touch 94458
Kurdish 94418
Bal@@ 94371
D-@@ 94314
flag 94304
resignation 94269
unusual 94259
Attorney 94248
calm 94228
Cross 94177
K 94111
achieve 94081
establish 94065
Ma@@ 94064
lin@@ 94058
officially 94047
collapsed 94035
gunmen 94010
observers 94005
Vice 93956
Ni@@ 93951
bankruptcy 93910
Public 93826
lifted 93701
Jeff 93673
reputation 93651
imports 93631
Dan 93539
waters 93536
shift 93532
Year 93513
rocket 93483
za 93444
honor 93415
ideas 93404
welcomed 93398
matters 93378
ba 93376
merger 93371
opportunities 93365
transport 93349
Norway 93347
settle 93314
individuals 93264
R-@@ 93198
solid 93193
Authorities 93149
teachers 93149
stable 93125
trend 93121
trucks 93103
condemned 93057
sal@@ 93019
regions 93018
claiming 92932
Juan 92914
broad 92878
dealing 92814
alternative 92792
sha@@ 92791
gathering 92787
shopping 92767
ini 92691
Deputy 92640
miss 92632
IN@@ 92612
aides 92597
outcome 92565
deeply 92529
ob@@ 92486
De 92477
witness 92471
prosecution 92367
meter 92349
crackdown 92347
registered 92336
Christopher 92319
finals 92271
mer@@ 92259
complaints 92223
tribunal 92202
fan 92142
wear 92140
Or 92123
ING 92078
Rome 92032
ham 92031
Toronto 92025
SE@@ 92007
dramatic 91984
requires 91958
prepare 91891
becomes 91890
scale 91885
offense 91882
77 91879
W 91860
aim 91849
Time 91811
15@@ 91787
jump 91748
neighbors 91659
back@@ 91587
sensitive 91507
steel 91488
uc@@ 91483
lin 91465
suggest 91454
Gary 91371
ats 91277
jet 91243
Pre@@ 91216
networks 91182
ninth 91178
U 91152
wish 91103
intense 91094
electronic 91058
rounds 91037
UN@@ 90987
export 90963
Major 90921
7-6 90917
88 90879
association 90862
ongoing 90791
del 90721
cells 90712
anti@@ 90669
challenges 90631
welfare 90545
ously 90538
surrounding 90527
ber 90483
represent 90444
flew 90442
returns 90429
engine 90420
ators 90403
Pyongyang 90321
struggled 90292
deployed 90277
cl@@ 90260
sons 90231
managers 90211
represented 90179
0-@@ 90156
tennis 90155
traders 90142
temporary 90134
revenues 90115
Albanian 90083
hired 90047
display 90026
ville 89974
fields 89955
resigned 89918
ale 89917
escape 89896
lowest 89880
Her@@ 89853
Game 89845
satellite 89833
appeals 89823
five-@@ 89747
Del@@ 89728
withdraw 89654
Cuban 89652
investments 89635
compensation 89565
% 89560
98 89550
governing 89524
ven@@ 89518
turns 89491
snow 89471
advice 89466
river 89440
flow 89426
interim 89406
ge@@ 89381
mistake 89371
4,@@ 89355
estimate 89338
des 89312
Ba@@ 89296
trained 89273
communications 89238
bound 89219
peacekeepers 89211
hostages 89170
STORY 89137
M. 89126
pe 89062
nomination 89058
Series 88995
ballot 88931
ea@@ 88904
ative 88817
jo@@ 88794
Great 88759
Sol@@ 88756
ek 88736
familiar 88729
circumstances 88684
Tel 88667
settled 88661
pre-@@ 88643
cricket 88629
Minnesota 88614
quarterback 88564
14@@ 88519
winds 88484
ticket 88476
vision 88426
Act 88416
tive 88326
grounds 88287
identify 88275
holes 88253
Every 88240
pi@@ 88216
ABC 88193
definitely 88189
ST@@ 88168
firing 88162
V 88128
rural 88120
Anderson 88109
Vladimir 88097
Eric 88096
balls 88031
Mac@@ 88025
usual 87986
interior 87975
refugee 87916
dinner 87909
arrests 87882
meaning 87829
manufacturing 87800
OK 87788
the@@ 87672
Allen 87657
mountain 87623
quiet 87620
output 87614
Vi@@ 87610
Sunni 87584
Let 87579
letters 87554
dream 87549
Syrian 87549
Seoul 87514
Economic 87502
and-@@ 87499
Belgrade 87495
plot 87488
post-@@ 87457
limits 87413
negotiating 87386
chain 87314
Roman 87312
walking 87307
Athens 87297
sch@@ 87253
absolutely 87241
eat 87239
tu@@ 87212
radical 87161
false 87155
priority 87150
pleaded 87145
memory 87036
Arsenal 87012
joining 86966
Br@@ 86913
ali@@ 86874
wh@@ 86841
her@@ 86827
Alan 86813
20-@@ 86751
Giants 86668
au@@ 86631
delegates 86607
badly 86597
cor@@ 86580
ines 86499
Sun 86457
Five 86428
notes 86400
discussion 86323
contest 86310
sel@@ 86301
playoff 86278
laid 86259
gs 86231
ile 86228
Ryan 86194
Shi@@ 86180
inquiry 86177
resistance 86151
Shanghai 86120
senator 86093
Mayor 86059
GOP 86045
ns 86010
separatist 86004
exploded 85956
ten@@ 85949
bases 85940
Tra@@ 85900
Chi@@ 85839
foreigners 85832
factory 85820
borders 85791
Is@@ 85752
threatening 85704
15-@@ 85620
Long 85580
Ti@@ 85578
male 85554
for@@ 85499
Mat@@ 85492
CIA 85484
pen@@ 85478
Swedish 85472
az@@ 85447
Maybe 85438
otherwise 85422
shape 85416
originally 85398
electoral 85392
Chechen 85337
arrival 85322
CAN 85305
Ru@@ 85285
mi@@ 85272
Sox 85259
founded 85241
assembly 85177
county 85171
song 85165
ex-@@ 85097
Hol@@ 85089
structure 85078
tic@@ 85068
Ser@@ 84993
camera 84972
USA 84966
opponent 84960
extend 84941
announce 84940
landed 84919
glass 84916
futures 84906
pope 84859
factor 84857
ically 84840
50,000 84829
programme 84808
82 84804
20,000 84798
entry 84789
occupied 84735
disputed 84716
comfortable 84697
knowledge 84674
seed 84660
appropriate 84620
airlines 84582
photos 84578
ful 84577
values 84539
attempted 84530
loved 84505
regulations 84495
chosen 84476
Cleveland 84434
handling 84433
employee 84431
Home 84418
4,000 84407
quit 84389
helicopters 84383
Sam@@ 84354
tries 84351
Assembly 84317
ford 84316
buried 84296
disappointed 84271
restore 84262
Denver 84237
importance 84236
entering 84219
boss 84166
legislative 84121
Gordon 84104
militia 84071
journalist 84036
92 83998
mental 83996
feared 83931
Bangladesh 83894
un 83869
gar@@ 83863
Services 83859
reporting 83857
zed 83854
AND 83840
ori@@ 83836
qualifying 83771
silver 83700
clothes 83615
feels 83609
surface 83594
ble 83318
86 83313
he@@ 83301
Warner 83296
5,@@ 83280
demonstrators 83268
window 83193
thanks 83192
rating 83126
initiative 83108
Andy 83034
understanding 83023
zing 83020
Law 82998
northwest 82991
messages 82989
flat 82955
ie 82946
phones 82935
materials 82878
Gi@@ 82835
sm@@ 82811
air@@ 82805
survivors 82804
identity 82779
prize 82735
dec@@ 82729
sl@@ 82720
Embassy 82716
TO 82715
87 82693
Wales 82651
ing-@@ 82620
ly@@ 82596
trees 82583
Rodriguez 82471
Medical 82464
ders 82407
explosives 82392
theater 82380
accusations 82380
ride 82361
remote 82357
traveling 82311
Star 82302
ce 82291
animal 82240
praised 82240
id 82231
ica 82222
IS@@ 82179
carrier 82121
website 82095
speaker 82086
wild 82070
encourage 82066
IMF 82036
Brussels 82031
hundred 82022
Each 81991
forcing 81963
papers 81959
earn 81929
Ger@@ 81916
securities 81903
Story 81857
Vatican 81748
94 81686
97 81684
preliminary 81673
79 81651
ms 81643
experienced 81616
Simon 81599
writers 81562
jailed 81553
abandoned 81549
youth 81546
slipped 81540
ou 81531
super@@ 81523
www.@@ 81516
Sarajevo 81509
maximum 81483
q@@ 81475
arrive 81460
reserves 81439
writes 81417
CBS 81358
mu@@ 81321
rooms 81295
emotional 81266
AM@@ 81263
counts 81247
winners 81241
ban@@ 81235
roughly 81213
fees 81189
120 81142
Liberation 81134
numerous 81118
representing 81096
dogs 81081
Jacques 81061
aide 81024
visits 80991
pool 80980
device 80967
93 80959
ely 80920
D.C. 80918
performed 80894
Simpson 80850
Caribbean 80829
digital 80806
incidents 80799
enemy 80787
fishing 80782
ics 80768
ise 80764
feature 80752
pictured 80751
Maria 80743
Who 80730
broader 80722
metal 80712
creation 80682
Singh 80660
Apple 80659
84 80625
innocent 80621
tickets 80565
Alex 80563
convinced 80523
Fort 80509
brothers 80486
recognize 80479
investigate 80468
tor@@ 80452
cap 80431
string 80431
Columbia 80426
models 80425
11-@@ 80422
championships 80395
occupation 80386
fill 80370
gr@@ 80348
formally 80348
els 80302
00 80282
gasoline 80275
color 80217
Clark 80214
Santa 80214
83 80210
renewed 80191
contrast 80185
freed 80157
Six 80144
Nelson 80102
sion 80101
Romania 80081
SA 80077
Haiti 80048
plenty 79977
shoulder 79970
shock 79966
can@@ 79966
managing 79954
Dis@@ 79923
desire 79898
ah-@@ 79888
ear@@ 79884
financing 79865
pri@@ 79838
probe 79790
AR@@ 79770
minimum 79699
Can@@ 79691
songs 79673
producers 79662
yuan 79659
racing 79652
Others 79649
kilometres 79649
location 79612
absence 79590
monthly 79583
partly 79570
Bureau 79563
Jason 79559
1970s 79548
effectively 79514
ga 79501
are@@ 79461
ub@@ 79424
second-@@ 79344
gap 79338
smoke 79291
abortion 79255
peacekeeping 79229
Ki@@ 79226
ousted 79209
Yasser 79190
earthquake 79180
Robinson 79152
capable 79142
faster 79138
distance 79137
Ha@@ 79129
bloc 79097
maintained 79084
FOLLOWS 79075
Sam 79071
unchanged 79064
Foundation 79036
photo 79029
instance 79012
low-@@ 79000
Square 78998
margin 78961
pending 78919
Commerce 78909
informed 78879
Fi@@ 78876
Ac@@ 78874
frequently 78867
alongside 78859
capture 78841
goalkeeper 78799
proud 78766
2,@@ 78765
Russians 78718
longtime 78700
tanks 78684
ita 78682
operate 78670
zer 78660
Castro 78640
negotiate 78630
verdict 78622
CH@@ 78606
oo@@ 78589
shed 78554
Wal@@ 78514
savings 78468
fate 78444
Stewart 78443
Im@@ 78442
volume 78429
Anthony 78427
Disney 78375
Denmark 78375
insurgency 78356
complaint 78327
pilots 78313
Mas@@ 78268
behalf 78227
compound 78204
tri@@ 78202
practices 78188
thinks 78175
dress 78171
Harry 78138
Lu@@ 78036
enjoy 78018
ick 78000
AL 77994
infrastructure 77973
coaches 77972
singer 77944
11@@ 77918
apply 77881
30,000 77859
producing 77848
newly 77840
81 77788
consequences 77782
half-@@ 77764
provincial 77740
Toyota 77632
WASHINGTON 77624
guarantee 77600
ying 77595
steady 77537
kers 77505
Life 77492
afford 77467
ade 77380
WORLDSOURCES 77370
eh@@ 77325
Queen 77289
equal 77278
entertainment 77265
stick 77229
commissioner 77217
violations 77213
Le 77210
Lakers 77176
text 77167
tree 77151
Oil 77136
potentially 77133
Airport 77099
ena 77082
Libya 77042
cu@@ 77027
quake 76997
concrete 76993
3,@@ 76978
Phoenix 76965
cre@@ 76962
29@@ 76951
funeral 76923
doors 76892
Gold 76860
gen@@ 76859
burned 76854
1.2 76811
Fre@@ 76787
essential 76761
improving 76760
Blue 76757
centers 76753
Mugabe 76739
barely 76735
6,@@ 76706
Tu@@ 76693
argue 76668
Earth 76629
Iowa 76610
chose 76560
RE@@ 76535
04 76529
politically 76481
ere 76472
monitoring 76464
ballots 76451
skills 76371
stretch 76360
aj@@ 76323
Ra@@ 76273
causes 76248
Southeast 76230
yield 76214
Museum 76210
Federation 76203
interviews 76185
ola 76109
anybody 76105
Murray 76089
inches 76077
defended 76075
gross 76074
participate 76055
Front 76045
findings 76022
promises 76019
moments 76012
throwing 75981
Austin 75977
boats 75965
Karzai 75923
ef@@ 75877
Speaking 75806
89 75793
ched 75787
Larry 75761
obviously 75700
degrees 75697
controversy 75693
ably 75678
alized 75622
ara 75622
S. 75578
Harvard 75543
ure 75529
client 75500
ching 75497
cool 75454
han 75447
Kelly 75414
wi@@ 75404
clash 75390
sponsored 75374
13.@@ 75299
Commissioner 75285
regularly 75256
ot 75246
swept 75216
thrown 75214
urging 75204
founder 75168
content 75145
demonstrations 75133
Pol@@ 75091
MATERIAL 75088
j 75062
unknown 75037
briefly 75002
inger 74999
passes 74980
gra@@ 74975
ani@@ 74949
lea@@ 74949
plastic 74921
lunch 74918
connected 74896
motion 74893
Pal@@ 74857
bri@@ 74844
atmosphere 74840
economists 74815
prospects 74791
accounting 74777
Edwards 74762
wine 74749
alert 74726
album 74726
il 74722
Philippine 74720
ve@@ 74623
analysis 74609
Oklahoma 74559
saved 74510
variety 74501
tradition 74450
climbed 74446
salary 74437
pan@@ 74430
hero 74422
Tiger 74335
Harris 74332
sentiment 74323
talent 74290
Stanley 74252
AT@@ 74246
Congo 74245
tomorrow 74228
code 74185
religion 74174
Somalia 74167
stroke 74153
Hillary 74125
economies 74125
partnership 74117
perform 74111
Bl@@ 74103
cleared 74068
ari@@ 74063
vital 74061
tackle 74050
AS@@ 74004
medicine 73976
ess@@ 73962
Pennsylvania 73933
landing 73927
ass@@ 73898
departure 73897
Dar@@ 73861
Old 73859
Chairman 73842
busy 73832
pages 73830
Donald 73790
ain 73785
employment 73783
Without 73771
Management 73767
Lt. 73681
mph 73680
1986 73678
normally 73671
ultimately 73669
Roger 73667
Peace 73665
suggests 73654
sn@@ 73647
empty 73637
tobacco 73617
bitter 73602
Bor@@ 73573
Business 73569
bird 73560
dance 73547
prospect 73456
mention 73417
harder 73379
purpose 73363
Nor@@ 73318
southeast 73287
ants 73268
parent 73264
drama 73258
suspension 73251
helps 73251
appealed 73246
cha@@ 73232
takeover 73217
lights 73198
Luis 73191
suddenly 73130
ff@@ 73109
liberal 73067
sy 73042
bel@@ 73035
pleased 73018
awarded 72948
notice 72945
Tamil 72934
War@@ 72913
spirit 72911
CEO 72898
characters 72893
accompanied 72888
res@@ 72881
drawing 72833
tape 72828
fighter 72798
unity 72787
Gal@@ 72786
argument 72780
highway 72758
TIMES 72755
Pittsburgh 72742
Pan@@ 72708
playoffs 72693
testified 72671
Thompson 72658
afraid 72651
ology 72606
warm 72580
distribution 72573
skin 72566
den@@ 72563
recover 72550
uranium 72529
ha 72495
Food 72495
Palm 72437
Ku@@ 72392
Croatian 72378
2011 72368
northeast 72334
Mohammad 72282
,@@ 72232
Prosecutors 72212
totally 72196
ti 72168
artist 72134
ada 72127
background 72107
Miss 72091
Cam@@ 72060
Guard 72049
escaped 72047
substantial 72037
ari 72030
soft 71959
waste 71935
28@@ 71898
ian 71891
mann 71887
ja 71843
slowly 71805
str@@ 71804
devices 71798
unrest 71788
transition 71758
ko@@ 71731
proof 71707
sen@@ 71706
follows 71683
Gonzalez 71672
victories 71671
pop 71664
38@@ 71660
Radio 71660
resident 71651
ash 71651
somebody 71613
Ram@@ 71565
approve 71547
Bra@@ 71536
engaged 71520
IC@@ 71482
ping 71467
6,000 71423
down@@ 71404
AHN 71402
hand@@ 71394
ranks 71393
ut 71380
erupted 71346
emerging 71345
Nasdaq 71333
error 71328
signal 71307
hostage 71286
Cairo 71275
questioning 71241
AL@@ 71231
outbreak 71225
expanded 71222
luxury 71221
manufacturers 71174
gate 71133
recognized 71115
equity 71086
lands 71085
sick 71072
OPEC 71047
Polish 70989
yellow 70980
reduction 70946
1,500 70938
ao 70935
obtained 70932
Rwanda 70919
ese 70878
Later 70867
Affairs 70848
directors 70839
Jan@@ 70820
Labour 70790
Sarkozy 70733
combination 70731
Hor@@ 70723
tension 70712
hn 70712
assassination 70700
sun 70692
ls 70673
din 70666
Phil 70649
locked 70647
Yes 70640
attending 70628
inspired 70613
learning 70607
tourist 70600
Tampa 70574
selected 70559
gang 70557
7-5 70553
Benjamin 70550
artists 70537
wage 70478
Art 70471
pursue 70445
03 70440
unprecedented 70440
Gra@@ 70430
shoot 70424
eating 70415
elements 70405
Division 70391
mortgage 70387
strengthen 70372
ack 70356
adults 70352
improvement 70347
Cyprus 70327
Tri@@ 70327
Will 70322
tourism 70306
declaration 70301
staged 70291
falls 70259
Osama 70254
ich 70234
30@@ 70200
drinking 70200
forms 70197
triggered 70184
permission 70154
Delhi 70154
bag 70141
Sab@@ 70134
walls 70122
ents 70107
impose 70072
bur@@ 70051
ill@@ 70024
windows 70012
rated 69994
tro@@ 69992
Standard 69929
happening 69907
factors 69905
tribal 69884
phase 69868
stance 69856
canceled 69853
A-@@ 69838
Indians 69834
monitor 69833
Han@@ 69817
investigations 69816
rape 69801
mosque 69798
3-0 69798
judicial 69788
win@@ 69750
shops 69747
conversation 69714
outlook 69671
ow@@ 69641
rushed 69640
10th 69631
novel 69623
dry 69622
ped 69618
sions 69615
ev 69609
surge 69589
war@@ 69554
category 69514
affair 69507
master 69490
bro@@ 69486
state-run 69463
Matt 69442
reducing 69440
Newspapers 69436
insists 69395
invest 69389
Little 69378
beautiful 69370
march 69367
Investors 69288
yes 69282
Mur@@ 69267
racial 69243
bloody 69235
lots 69220
Bell 69209
30-@@ 69174
Ray 69171
attitude 69095
AC@@ 69095
Ter@@ 69085
survive 69020
reference 69016
cargo 69015
Google 69002
foundation 68997
Inter@@ 68981
Fl@@ 68973
realize 68949
federation 68929
optimistic 68924
interesting 68870
Wimbledon 68866
bars 68820
urban 68808
Information 68790
entirely 68755
tank 68736
R. 68704
Well 68702
Pe@@ 68689
cur@@ 68682
cra@@ 68673
Cl@@ 68630
Chile 68617
Football 68591
vo@@ 68589
resign 68580
AY 68561
bench 68536
Colin 68535
col@@ 68503
momentum 68501
MORE 68469
Az@@ 68466
SH@@ 68458
emb@@ 68453
pact 68436
popularity 68431
brings 68409
stress 68401
mandate 68385
species 68348
weapon 68329
requested 68316
competing 68310
bs 68283
ta@@ 68275
actress 68268
91 68259
Bon@@ 68221
obvious 68219
Men@@ 68216
tra@@ 68179
payment 68168
hu@@ 68168
modest 68158
elderly 68142
bra@@ 68087
islands 68083
ala 68082
Albanians 68070
par 68059
restaurants 68053
ches 68052
treat 68046
Motor 68036
succeed 68007
wars 67958
Man 67919
overcome 67915
PGA 67908
sti@@ 67899
channel 67888
ratings 67874
ki@@ 67867
punishment 67832
protected 67824
Until 67824
significantly 67818
counterpart 67814
EN@@ 67812
rebounds 67801
sh 67795
ann@@ 67762
itt@@ 67761
Garcia 67712
junior 67700
worries 67695
Walker 67683
1-1 67682
ute 67677
infected 67672
bags 67666
buyers 67662
11.@@ 67654
kes 67626
el-@@ 67625
8,000 67620
searching 67610
ol 67604
1987 67593
ved 67582
surrounded 67577
staying 67552
acres 67538
AD@@ 67514
Er@@ 67492
tend 67471
truce 67462
Nobel 67437
festival 67380
six-@@ 67373
ned 67272
Tar@@ 67255
bear 67238
anywhere 67221
harm 67218
billions 67209
BBC 67195
hardly 67144
enormous 67138
coffee 67138
Bre@@ 67137
Mohamed 67097
Gates 67072
200,000 67057
contained 67033
Mel@@ 67008
elite 66954
des@@ 66942
Pri@@ 66922
moral 66904
outs 66891
sts 66859
Martinez 66841
ist 66836
grave 66829
Journal 66824
don 66815
alcohol 66812
legs 66806
hosts 66802
roll 66759
patrol 66753
achieved 66742
accusing 66710
tragedy 66698
Xinhua 66695
wickets 66682
Em@@ 66675
detainees 66672
2:@@ 66668
trials 66663
customer 66660
backs 66649
crossing 66646
14.@@ 66639
Pl@@ 66632
nobody 66605
fee 66595
Cal@@ 66590
Illinois 66587
reflect 66572
Geneva 66554
industries 66551
impressive 66547
extremists 66542
Tak@@ 66517
enjoyed 66501
illness 66488
Malaysian 66486
Boris 66484
05 66462
Jakarta 66427
Dennis 66401
bail 66380
U.S.-@@ 66325
regulators 66277
Elizabeth 66274
Jerry 66261
narrow 66260
br@@ 66217
Moore 66193
Sun@@ 66179
developments 66161
1.3 66148
Calif. 66136
scientific 66121
ourselves 66112
San@@ 66111
Kremlin 66103
UK 66072
Berlusconi 66058
mail 66056
hall 66028
lifting 66025
Wi@@ 66023
viewers 66016
om 66013
Adam 66005
Dick 66000
birthday 65980
Graham 65970
Mad@@ 65956
statistics 65938
upper 65934
tells 65914
striking 65910
ets 65901
inch 65875
ther@@ 65866
D. 65835
polling 65828
gotten 65810
ach 65789
Sports 65759
contain 65745
holy 65744
ette 65721
encouraged 65690
Academy 65681
violation 65678
PC 65649
Oscar 65613
Fernando 65603
thus 65599
Rio 65596
Tigers 65571
2nd 65559
kidnapped 65542
keeps 65539
Enron 65536
rarely 65533
southwest 65511
recognition 65507
mistakes 65507
dri@@ 65481
politician 65479
Steven 65471
horse 65467
emissions 65464
machines 65464
Rose 65456
contributions 65447
sustained 65419
med 65412
tone 65412
multiple 65411
recommended 65402
sharing 65384
Darfur 65351
Abdul 65336
long-@@ 65330
Alliance 65273
possession 65271
Finland 65271
traveled 65251
im 65243
ged 65216
ew@@ 65207
resulted 65190
conspiracy 65133
Don 65117
Dodgers 65114
auction 65066
ret@@ 65055
NASA 65039
eman 65019
sight 65007
Cambodia 65005
birds 64992
bas@@ 64971
mor@@ 64969
cameras 64966
crossed 64940
neck 64924
likes 64917
cooperate 64889
E. 64854
puts 64823
Belgian 64817
gl@@ 64816
Any 64775
mutual 64775
genocide 64769
Chen 64747
vulnerable 64663
acquired 64617
oppose 64615
3-1 64606
Mag@@ 64594
ee@@ 64561
covering 64548
ordinary 64529
em 64526
Hundreds 64512
plunged 64508
fires 64492
Capital 64438
Mubarak 64408
Te@@ 64407
Mets 64386
qualify 64324
collected 64321
Las 64297
districts 64293
ening 64264
aging 64256
Campbell 64245
chi@@ 64242
sleep 64238
stated 64236
TH@@ 64227
aries 64214
prior 64212
Marine 64201
Edward 64201
ado 64177
extent 64177
finishing 64174
meat 64125
illegally 64097
ars 64074
torture 64051
Lord 64046
kilometer 64044
3.5 64042
upcoming 64037
grant 64022
acted 64018
enc@@ 63982
Cheney 63956
uh 63942
ali 63937
proper 63917
fail 63909
Giuliani 63894
He@@ 63893
suggesting 63825
stuck 63806
Win@@ 63804
serves 63781
1980 63770
Tennessee 63755
atory 63740
typically 63732
currencies 63729
IOC 63729
veterans 63695
musical 63663
Sony 63662
noting 63653
license 63639
multi@@ 63615
one-day 63604
settlements 63593
Adams 63575
ey@@ 63570
hol@@ 63547
ft 63544
ata 63540
associated 63534
ceasefire 63507
participants 63499
Jan 63487
Fin@@ 63482
chips 63473
smoking 63471
presidents 63441
burning 63435
ca@@ 63429
ju@@ 63400
procedures 63371
posts 63318
conviction 63299
New@@ 63298
attacking 63298
referred 63289
campaigns 63249
pipeline 63239
rookie 63216
rockets 63207
l-@@ 63197
raids 63179
indication 63177
extreme 63174
unique 63165
telecommunications 63156
knocked 63124
applied 63114
mat@@ 63105
provinces 63095
Tor@@ 63091
ei@@ 63091
activist 63071
pressed 63056
U.S.-led 63043
handful 63031
mouth 63024
ast@@ 63017
replacement 63012
blew 62990
Bruce 62967
stolen 62966
Mitchell 62957
surplus 62919
ancient 62907
platform 62897
fin@@ 62876
Omar 62870
suffer 62869
c. 62841
US-led 62821
citizen 62816
selection 62803
successor 62797
tracks 62793
rapidly 62792
spoken 62791
trapped 62789
1979 62789
intention 62780
amounts 62773
bright 62765
ama 62758
40@@ 62708
02 62693
Perry 62689
penalties 62661
consensus 62646
scheme 62631
12.@@ 62621
counter 62614
bilateral 62602
forget 62574
mentioned 62559
appointment 62553
Hal@@ 62549
7,@@ 62539
post@@ 62532
Peres 62526
wonder 62520
Society 62519
Delta 62518
| 62516
intervention 62485
participation 62485
trans@@ 62478
16-@@ 62470
no-@@ 62442
actual 62441
wealth 62404
Hampshire 62377
or-@@ 62372
commanders 62340
organizers 62333
attorneys 62332
ON 62328
900 62306
lock 62295
ash@@ 62287
column 62280
ER 62280
guerrilla 62266
C. 62259
7,000 62241
ong@@ 62238
disappeared 62225
bomber 62219
routine 62209
del@@ 62198
Cre@@ 62194
Nazi 62190
14-@@ 62166
BO@@ 62153
gg@@ 62152
Barry 62144
pension 62135
Hungary 62129
dropping 62108
promising 62064
jets 62047
deny 62029
two-day 62019
1984 62011
AC 61989
residence 61984
warnings 61975
viewed 61975
hotels 61974
beef 61957
of-@@ 61956
ire 61943
sovereignty 61934
somewhat 61922
L. 61922
Connecticut 61916
lineup 61911
extraordinary 61893
01 61892
Ron 61891
defendants 61881
ee-@@ 61877
investor 61862
pledge 61841
FIFA 61820
Interfax 61805
500,000 61787
Craig 61784
manage 61743
Chrysler 61743
Dave 61741
hiding 61741
wedding 61733
all@@ 61731
businessman 61692
beach 61654
dly 61647
tz 61621
Indeed 61544
map 61501
ell@@ 61488
Gen@@ 61461
ric@@ 61443
wore 61406
campus 61379
IT@@ 61373
expanding 61362
ailing 61338
Utah 61310
pu@@ 61310
complicated 61300
Thousands 61299
clothing 61277
Greg 61268
Hotel 61169
for-@@ 61089
ths 61058
demonstration 61048
monetary 61046
chip 61038
Ci@@ 61034
Rick 61020
arguing 60992
1960s 60991
ac 60972
theme 60971
dressed 60969
ro 60961
supports 60960
exile 60907
aff@@ 60903
authorized 60900
RI@@ 60891
resolved 60879
ed-@@ 60877
Children 60874
WTO 60866
detailed 60840
ges 60833
Char@@ 60829
scenes 60827
elaborate 60809
expecting 60808
cher 60794
royal 60772
pressing 60761
ement 60741
AN 60729
mix 60720
bal@@ 60685
roof 60681
mainland 60671
Ag@@ 60628
Mandela 60606
competitors 60576
re-election 60574
guess 60570
Hamilton 60560
checks 60560
theory 60559
zi 60544
UPDATED 60541
yourself 60533
autonomy 60533
Baltimore 60521
isolated 60519
guests 60514
ranking 60509
carefully 60507
Masters 60500
execution 60490
od@@ 60489
8,@@ 60473
Capitol 60433
ue 60421
au 60419
assessment 60417
rallied 60410
addressed 60401
Movement 60391
rice 60381
ney 60358
express 60350
Price 60314
mountains 60298
Terry 60256
Civil 60247
Li 60247
US-@@ 60229
Jean 60221
indictment 60213
five-year 60213
tired 60210
deployment 60209
ws 60149
drink 60122
therefore 60120
lending 60116
branch 60114
fierce 60113
Morris 60107
policemen 60091
lets 60075
-to-@@ 60070
Vegas 60059
ignored 60036
DNA 60036
truly 60032
discrimination 60020
15.@@ 60001
Cas@@ 59951
eager 59943
O'@@ 59931
violated 59928
fo@@ 59924
50@@ 59895
risen 59877
Fatah 59866
lying 59835
executed 59824
ounce 59810
Gingrich 59799
eligible 59798
spots 59794
ath@@ 59790
ero 59784
Wayne 59780
charity 59764
peak 59759
Love 59752
head@@ 59732
May@@ 59726
Z 59683
replied 59674
singles 59643
Ross 59635
midnight 59628
J 59627
regarding 59612
25-@@ 59601
fied 59585
ken 59567
transportation 59496
photographs 59481
gy 59476
requirements 59462
Austrian 59446
warming 59421
kid 59418
celebrate 59417
los 59410
N.Y. 59397
restructuring 59386
tur@@ 59368
shocked 59330
Windows 59305
opposite 59289
acy 59247
Mul@@ 59205
palace 59198
ung 59149
editorial 59107
F. 59101
ech@@ 59099
ments 59095
adult 59090
forum 59086
Brooklyn 59083
dle 59065
cup 59057
27@@ 59053
solve 59048
kicked 59025
exposed 59008
IRA 58982
two-thirds 58963
concert 58943
teammates 58896
approached 58877
ura 58856
ace 58822
print 58795
acquisition 58789
strict 58777
actors 58707
electric 58696
trails 58689
submitted 58680
equivalent 58644
embargo 58644
employers 58630
uh-@@ 58630
Dun@@ 58619
Chancellor 58612
destroy 58605
counsel 58596
surveillance 58579
studio 58574
principal 58567
comedy 58565
wealthy 58564
chi 58551
commit 58541
10.@@ 58521
encouraging 58513
attract 58486
temperatures 58485
sa@@ 58464
Mah@@ 58460
qui@@ 58446
Orleans 58439
Next 58431
sea@@ 58424
Free 58414
disappointing 58387
chair 58384
CO@@ 58383
types 58372
arriving 58372
homer 58371
wicket 58367
ov@@ 58355
boycott 58339
AS 58324
realized 58321
contribute 58314
zi@@ 58301
PUBLISHED 58289
withdrew 58273
carries 58267
uncertainty 58267
dem@@ 58258
typical 58248
1985 58245
exhibition 58221
Ash@@ 58211
bre@@ 58164
Channel 58163
Medicare 58162
outstanding 58149
trafficking 58139
Peru 58127
crack 58107
16.@@ 58104
biological 58083
challenged 58061
transferred 58023
Danish 58020
Bradley 58011
blocks 58000
rush 57995
Communications 57970
asylum 57958
sounds 57949
mil@@ 57922
Cowboys 57921
classic 57904
feed 57902
Col. 57884
ear 57871
merely 57866
Don@@ 57865
CA@@ 57864
soil 57840
wa 57837
Sometimes 57800
18-@@ 57794
necessarily 57783
barred 57775
nervous 57763
hearings 57728
tonight 57693
mines 57689
recall 57683
correct 57676
homeland 57666
ently 57658
touchdown 57657
ownership 57621
Pope 57587
Seven 57569
qualified 57569
1.6 57564
Ge@@ 57559
appearances 57545
kidnapping 57526
assured 57525
ron 57513
manner 57509
Ken 57509
personally 57503
Bas@@ 57496
Inter 57493
Sel@@ 57490
AG 57485
inmates 57484
Hi@@ 57453
Nick 57439
exist 57430
edged 57427
rebound 57413
breaks 57405
freeze 57404
veto 57377
criminals 57351
sweet 57327
sur@@ 57323
turmoil 57306
ily 57302
indeed 57299
persuade 57288
Education 57269
Tam@@ 57263
13-@@ 57259
proceedings 57227
yer 57224
1983 57213
form@@ 57213
ranging 57184
principle 57179
TI@@ 57153
cdy 57130
Golden 57115
sentences 57112
9,@@ 57103
q 57081
prevented 57063
journey 57055
revolution 57055
Cold 57036
mood 57036
utility 57015
battles 56998
difficulties 56998
factions 56998
performances 56989
fairly 56983
missions 56973
burn 56964
suspicion 56951
BY 56935
Ivory 56923
first-@@ 56872
uprising 56867
10-year 56858
Special 56855
iron 56843
length 56822
Indiana 56813
amp@@ 56803
Roy 56796
automatic 56784
fixed 56783
sealed 56782
cocaine 56778
lined 56757
cas@@ 56748
Au@@ 56746
carriers 56735
Bangkok 56678
opener 56673
senators 56672
McC@@ 56627
legitimate 56610
stages 56601
loyal 56594
consultant 56590
50-@@ 56590
Poor 56588
Portuguese 56587
350 56586
Islamabad 56559
requests 56528
knowing 56525
shuttle 56516
duties 56490
Mus@@ 56458
sol@@ 56422
ON@@ 56408
Ak@@ 56378
Reagan 56359
pulling 56348
B. 56316
Munich 56307
meets 56291
gift 56288
locations 56273
notably 56272
Rumsfeld 56271
Perhaps 56263
fat 56244
regarded 56201
advocates 56200
Jimmy 56187
frequent 56177
1.4 56158
imagine 56156
sad 56145
Global 56131
arguments 56118
mining 56113
Federer 56112
finds 56109
fore@@ 56077
abuses 56069
Indies 56066
evacuated 56056
Everyone 55968
Yemen 55958
lo 55952
extensive 55941
classes 55938
bronze 55923
rapid 55892
concept 55886
lists 55877
performing 55871
Sur@@ 55865
resumed 55864
NHL 55860
Hassan 55800
warrant 55781
terrible 55778
stein 55759
profile 55734
coastal 55713
eliminate 55710
expenses 55694
overs 55687
Arabs 55681
fying 55661
Wright 55636
delays 55618
Val@@ 55614
ETA 55608
Philip 55604
Schroeder 55603
reserve 55590
ez 55583
Str@@ 55572
H. 55533
lucky 55528
indicted 55510
swing 55498
My@@ 55474
quarters 55466
fed 55462
relative 55436
07 55409
awards 55395
application 55374
Airbus 55367
sweeping 55362
desperate 55323
15,000 55281
footage 55267
clo@@ 55265
th-@@ 55263
25@@ 55259
disputes 55255
wages 55246
keeper 55228
airports 55228
suburb 55221
beer 55215
Ocean 55204
17.@@ 55203
Bulgaria 55175
00@@ 55160
coal 55158
ora 55133
daughters 55099
exit 55092
Cameron 55086
Neither 55080
loose 55036
Missouri 55035
vessel 55016
Following 55006
21-@@ 55005
ul 54994
filing 54974
neighbor 54970
Where 54954
flags 54954
alist 54945
tically 54938
sted 54925
Monetary 54922
opens 54921
interviewed 54913
Costa 54896
sessions 54892
devastating 54881
troop 54865
thin 54857
facts 54844
Senator 54843
subsidies 54824
listen 54816
Colombian 54762
humans 54752
Bro@@ 54749
suits 54726
liked 54721
ham@@ 54718
HIV 54718
legislators 54705
underground 54700
parking 54682
wonderful 54682
successfully 54681
Russell 54681
donors 54676
Roberts 54666
shoes 54664
Local 54651
Puerto 54650
Ian 54614
protecting 54609
of@@ 54602
strain 54558
waited 54548
Motors 54541
hate 54533
equ@@ 54532
alism 54530
Qatar 54503
desert 54489
postponed 54483
electronics 54482
spy 54478
assist 54474
inspections 54473
Good 54467
Patriots 54457
crowded 54436
ES@@ 54425
announcing 54403
Filed 54380
doubts 54376
le-@@ 54365
indicate 54356
conclusion 54350
tel@@ 54347
EC@@ 54344
covers 54335
Company 54334
hum@@ 54333
At@@ 54328
settlers 54298
Facebook 54296
teammate 54289
hidden 54284
OR@@ 54282
associate 54277
hunting 54276
explosive 54255
reveal 54242
Socialist 54234
Lopez 54222
stem 54222
Scroll 54197
plea 54194
funded 54194
killer 54187
Ibrahim 54183
taught 54178
Bobby 54160
studied 54150
establishment 54146
convoy 54136
Sen@@ 54133
pm 54128
doubled 54127
Broadway 54126
Bri@@ 54125
tly 54109
DE@@ 54103
Gr@@ 54101
guide 54100
posed 54080
artillery 54079
BP 54078
17-@@ 54077
Armstrong 54049
rail 54038
Todd 54013
Oh 53995
Carl 53995
Al-Qaeda 53988
grade 53986
pitcher 53985
damages 53971
anc@@ 53953
ona 53916
reluctant 53914
4.5 53901
rugby 53894
symbol 53889
Workers 53879
Jets 53875
designer 53869
Ed@@ 53863
celebrated 53862
specifically 53856
cheap 53855
medals 53844
ming 53836
consumption 53836
Sk@@ 53819
bat 53804
inf@@ 53798
refusing 53793
shore 53789
reiterated 53774
extension 53763
Bryant 53758
slowdown 53752
en-@@ 53742
Goldman 53738
Mahmoud 53736
130 53715
Ker@@ 53711
pitched 53710
aya 53704
tactics 53702
handled 53698
advisers 53688
uri@@ 53687
reconciliation 53672
everywhere 53672
Ban@@ 53662
denies 53655
1.1 53646
properly 53641
Pen@@ 53636
hostile 53619
1967 53611
massacre 53609
Douglas 53603
boom 53590
vers 53585
Baker 53578
buses 53576
fastest 53553
tense 53553
trips 53550
eve 53548
1982 53535
Rock 53509
Television 53509
followers 53501
ality 53474
Men 53471
bombers 53470
lar@@ 53459
fix 53457
crowds 53451
plate 53449
itz 53445
Rom@@ 53438
Sil@@ 53412
understood 53406
waves 53397
Tom@@ 53393
ew 53384
reconstruction 53366
Barak 53360
Sudanese 53357
earth 53356
kinds 53339
portion 53331
repair 53329
kov 53314
Bou@@ 53302
Ambassador 53269
tougher 53260
forest 53251
powder 53251
applications 53250
standings 53230
FA 53228
ss 53226
Mississippi 53220
Olmert 53219
respected 53217
Trust 53210
lasted 53195
brutal 53186
adi@@ 53182
dating 53161
attractive 53155
Fla. 53155
files 53147
1st 53143
06 53126
passage 53093
silence 53093
UR@@ 53083
specialist 53079
judgment 53064
discovery 53057
ist@@ 53056
g-@@ 53049
semifinals 53044
NEW 53038
smart 53037
lifts 53036
rolled 53031
primarily 53022
historical 53021
challenging 53011
Argentine 53010
regulation 53010
thousand 52998
sudden 52989
None 52976
11th 52954
Sir 52938
Silva 52935
GDP 52932
annually 52917
bing 52888
adds 52866
Kyi 52857
operator 52856
taste 52829
unidentified 52819
riot 52818
trains 52816
reflected 52816
09 52794
eliminated 52792
lap 52786
Lynch 52786
lawsuits 52785
promoting 52774
volatile 52769
satisfied 52768
Media 52760
hire 52754
spiritual 52746
Maryland 52720
Dean 52715
Nearly 52709
Gil@@ 52707
territories 52695
stalled 52695
subsidiary 52686
memorial 52674
procedure 52664
comeback 52662
chest 52659
dominant 52654
si 52638
tear 52634
excited 52632
Sw@@ 52631
installed 52621
franchise 52619
Pat 52617
Second 52557
harsh 52556
tics 52534
ER@@ 52519
flood 52480
Montreal 52478
belief 52474
three-day 52467
Barbara 52430
assists 52420
revised 52412
Mun@@ 52407
Team 52401
rid 52399
Fo@@ 52386
roles 52361
conservatives 52360
two-year 52358
Ed 52357
Warren 52356
Palace 52335
ED 52271
obtain 52263
refusal 52251
Norwegian 52246
lawmaker 52240
Belarus 52219
privacy 52216
Nicolas 52211
fer@@ 52202
agriculture 52189
ine@@ 52184
ail 52181
frozen 52174
mid@@ 52163
chaos 52149
copy 52148
aviation 52143
pose 52133
oldest 52126
extradition 52111
p-@@ 52110
anticipated 52109
Slam 52098
rel@@ 52094
pregnant 52091
confrontation 52088
implement 52065
counted 52059
20th 52036
Alabama 52018
aims 52017
Representatives 52010
200@@ 52009
Market 51992
engineering 51986
Red@@ 51973
AT 51972
coaching 51964
excellent 51963
Jonathan 51950
Mount 51949
ologist 51937
Airways 51924
,000 51913
factories 51909
fundamental 51908
Sheikh 51884
converted 51857
fe@@ 51857
dying 51857
junta 51854
sters 51853
contacted 51840
cautious 51837
recovering 51832
short-term 51825
credibility 51823
Nikkei 51815
contacts 51790
Lin@@ 51787
Jesus 51785
disclosed 51781
ole 51780
sugar 51779
Kh@@ 51778
negotiated 51764
Top 51741
strongest 51717
Ke@@ 51692
E-@@ 51672
uck 51661
featured 51659
surprising 51655
Nigerian 51654
vacation 51651
third-@@ 51648
targeting 51640
Ronald 51621
Oakland 51618
tears 51612
TRIM 51607
consistent 51592
insist 51576
Dubai 51563
Power 51560
Oregon 51560
val@@ 51559
feelings 51558
UEFA 51552
legislature 51538
loaded 51529
Kentucky 51528
describe 51513
by-@@ 51507
Louisiana 51497
Orlando 51484
detail 51460
lady 51458
timing 51437
traditionally 51413
ela 51402
19.@@ 51402
hunt 51400
1.8 51397
displaced 51340
awaiting 51332
celebration 51323
Suu 51322
movements 51322
pol@@ 51313
Technology 51283
hockey 51283
Commonwealth 51269
temporarily 51256
ella 51232
S-@@ 51225
comprehensive 51205
Manila 51203
teaching 51176
lah 51175
Vienna 51172
boards 51142
Macedonia 51139
squ@@ 51135
Kings 51132
boxes 51123
Pr@@ 51122
3-2 51119
operated 51112
bury 51110
rough 51094
Sub@@ 51068
repeat 51056
char@@ 51017
Bol@@ 51013
yn@@ 51010
Marc 50994
nationalist 50978
Christians 50974
anymore 50969
18.@@ 50965
Wor@@ 50960
leftist 50955
referee 50954
sectors 50950
Family 50947
milk 50940
attempting 50932
shelter 50924
wounding 50919
copies 50900
rent 50894
studying 50871
Wang 50844
mal@@ 50835
Avenue 50818
counting 50804
coordinator 50802
Sanchez 50790
IAEA 50768
sil@@ 50767
Phillips 50759
yah 50757
fatal 50744
EL@@ 50740
Marines 50737
Hurricane 50721
ant@@ 50719
Sierra 50709
-up 50699
generated 50693
una 50693
riding 50675
boosted 50637
ahn 50625
remarkable 50619
secured 50616
closest 50608
zero 50607
pro 50595
NO 50565
conceded 50554
Wh@@ 50546
Right 50539
app@@ 50522
purchased 50518
amendment 50490
homeless 50487
guidelines 50467
our@@ 50467
surged 50463
boo@@ 50439
TS 50431
principles 50419
zz@@ 50414
ji 50410
Evans 50405
saving 50398
generate 50395
1.7 50379
right-wing 50368
ankle 50365
dates 50362
divisions 50350
allied 50350
essentially 50335
Scottish 50330
pack 50302
Mountain 50300
thick 50281
RO@@ 50266
high-profile 50253
reasonable 50245
Forces 50240
retailers 50235
tin 50228
Sim@@ 50224
contribution 50215
Germans 50207
shirt 50194
SEC 50193
exposure 50191
comm@@ 50184
Ms 50176
odds 50175
Stars 50162
advised 50154
Watch 50140
Shares 50132
anyway 50110
unveiled 50081
ites 50080
bet 50072
prompting 50065
pesos 50060
Na@@ 50050
lam@@ 50048
atic 50039
shi@@ 50025
standoff 50023
Algeria 50010
explosions 49993
mounting 49977
25,000 49951
owed 49935
ny 49935
battling 49899
seeks 49895
eight-@@ 49891
rely 49886
touched 49881
organisation 49848
composite 49828
carbon 49804
bul@@ 49801
Beirut 49775
Ukrainian 49771
ez@@ 49764
agricultural 49763
Walter 49758
40,000 49751
yo@@ 49749
intent 49739
Your 49726
constant 49722
Space 49703
ova 49682
forecasts 49680
ser 49677
concessions 49643
Bran@@ 49627
Vo@@ 49615
oni 49610
corn 49610
fax 49605
Ren@@ 49600
Honda 49592
reverse 49588
distributed 49566
answers 49556
ging 49546
careful 49540
lan 49501
def@@ 49460
Newcastle 49459
favored 49457
stra@@ 49455
Islamist 49440
wounds 49439
bles 49431
launching 49429
Fred 49422
gun@@ 49417
Road 49416
ward 49414
adopt 49412
ack@@ 49404
Koreans 49396
Susan 49384
attracted 49375
Besides 49369
occur 49360
smuggling 49331
hanging 49316
donations 49227
discussing 49205
FC 49199
riots 49190
eng 49187
collect 49182
evil 49173
flooding 49164
circuit 49156
Bernard 49140
Collins 49135
Ferguson 49133
alize 49132
Matthew 49127
Sales 49123
Kal@@ 49121
Unlike 49120
off-@@ 49119
negotiators 49117
projected 49110
firefighters 49069
convince 49061
sufficient 49061
Diana 49056
monitors 49049
Alaska 49028
Tibet 49023
three-year 49022
oned 49009
explanation 49008
naval 49004
dictator 49002
continent 48988
couples 48974
hor@@ 48963
strip 48958
considers 48955
n-@@ 48938
influential 48934
1975 48931
denounced 48927
pal@@ 48924
Relations 48920
burden 48919
Mir@@ 48918
Guantanamo 48912
Ap@@ 48854
tors 48845
Bayern 48820
regard 48816
blacks 48815
pointing 48813
ert 48791
ock 48761
ser@@ 48759
Vol@@ 48749
turnout 48738
Rev. 48722
Bat@@ 48709
micro@@ 48697
Turner 48693
BE 48640
bel 48637
elli 48616
Executive 48611
luck 48609
dro@@ 48601
08 48595
6-0 48591
ners 48589
valuable 48588
300,000 48586
weakness 48581
starter 48580
ab 48579
Control 48579
volunteers 48560
ored 48557
Cohen 48537
ail@@ 48536
eli@@ 48524
Ten 48520
burst 48518
gan 48515
answered 48505
switch 48490
urge 48488
prisoner 48474
Islands 48460
ath 48451
retain 48443
Gor@@ 48434
briefing 48431
Mari@@ 48429
overtime 48422
bone 48419
ke@@ 48414
slump 48399
guarantees 48397
eased 48388
Georgian 48386
girlfriend 48385
surrender 48377
load 48370
ene 48370
Angels 48364
eng@@ 48359
Show 48352
navy 48349
acc@@ 48337
debts 48332
permit 48314
hel@@ 48305
unlike 48299
Hebron 48270
minds 48260
Cooperation 48245
diseases 48243
Rabin 48231
ush@@ 48227
LI@@ 48226
painful 48218
zation 48207
Cincinnati 48204
amazing 48201
nominee 48187
errors 48180
sho@@ 48145
iting 48144
eh 48143
Slovakia 48141
unfair 48138
Fri@@ 48117
Mak@@ 48097
= 48089
recording 48077
scientist 48061
Online 48058
aki 48051
Tyson 48049
closure 48048
focusing 48043
_@@ 48042
inc@@ 48038
considerable 48036
bailout 48027
Tur@@ 48025
equally 48025
disarmament 48024
stream 48006
conflicts 47998
communication 47998
stronghold 47993
See 47990
routes 47988
publication 47973
grass 47968
ils 47953
containing 47946
oni@@ 47943
broker 47909
Holocaust 47905
Morocco 47835
Cook 47830
wound 47829
debris 47821
Hindu 47815
Ol@@ 47806
eri 47790
cat@@ 47788
Nobody 47777
rick 47770
AP@@ 47734
landmark 47730
smile 47714
letting 47694
enti@@ 47648
Eight 47625
visible 47624
Dayton 47622
22.@@ 47609
Reg@@ 47566
extremist 47566
Pete 47557
tor 47546
20.@@ 47529
ups 47526
restored 47518
Are 47513
determination 47505
Karadzic 47499
pollution 47491
publisher 47487
doubles 47486
graduate 47485
slide 47436
beauty 47424
stops 47414
declare 47397
110 47387
attributed 47374
wire 47371
IR@@ 47364
Sarah 47343
Kam@@ 47320
Gre@@ 47316
fel@@ 47315
involve 47315
don@@ 47274
Tel@@ 47253
cr@@ 47250
please 47247
demonstrated 47246
Thaksin 47243
Andre 47240
dealer 47236
Ahmadinejad 47235
ern@@ 47234
flown 47229
existence 47212
Lawrence 47203
Merrill 47203
administrative 47182
Dan@@ 47170
ame 47161
picking 47158
lu@@ 47141
voter 47140
Emirates 47139
Sean 47124
ambitious 47101
leg@@ 47093
categories 47088
provisions 47082
dawn 47068
MO@@ 47052
off@@ 47045
hopeful 47042
depends 47040
engineer 47038
shipping 47026
Shar@@ 47024
Fire 47023
methods 47020
villagers 47010
Ariel 47000
tall 46997
ys@@ 46989
chemicals 46976
memories 46969
atomic 46967
Vietnamese 46944
Network 46942
Classic 46936
churches 46934
1981 46932
Brothers 46932
ASEAN 46923
160 46916
Prize 46901
ini@@ 46900
Frankfurt 46891
Grant 46887
recommendations 46883
resulting 46881
Markets 46876
tonnes 46873
een 46861
We@@ 46847
Championships 46846
commitments 46835
eri@@ 46819
Ara@@ 46814
downturn 46796
priest 46794
stones 46789
chamber 46773
dra@@ 46766
consideration 46757
60,000 46756
Cape 46754
Dor@@ 46751
Orthodox 46735
tip 46733
Prix 46729
predecessor 46723
academic 46710
SI@@ 46681
tea 46678
Cap@@ 46659
arrangements 46652
oun@@ 46645
frustrated 46645
pat@@ 46625
optimism 46599
ton@@ 46596
hide 46592
tering 46585
urgent 46555
Roma 46553
enemies 46535
uni@@ 46518
somewhere 46517
12th 46515
noticed 46513
mad 46509
exact 46505
Sand@@ 46491
201 46485
wrapped 46427
institution 46419
prefer 46416
infection 46407
pp@@ 46407
suburban 46403
investigated 46401
fire@@ 46397
tremendous 46393
motivated 46377
sweep 46376
ous@@ 46367
Ros@@ 46362
edition 46360
EN 46344
garden 46342
attackers 46334
fac@@ 46328
tar@@ 46321
ony 46313
wider 46305
Hispanic 46304
dealt 46283
sy@@ 46277
1,0@@ 46261
threaten 46250
counter@@ 46250
wan 46206
bi 46200
introduce 46187
Arthur 46185
longest 46184
reject 46177
pride 46174
ain@@ 46130
Sher@@ 46122
stri@@ 46113
Lincoln 46089
halted 46089
paramilitary 46083
top-@@ 46074
mothers 46056
sun@@ 46055
Den@@ 46030
salaries 46027
cycle 46025
hom@@ 46021
assume 46017
gri@@ 46007
episode 46006
Kan@@ 46001
parade 45991
Hague 45985
Critics 45972
painting 45959
hiring 45954
unbeaten 45950
hailed 45940
stimulus 45938
metres 45923
NCAA 45916
injuring 45912
Bak@@ 45911
Pat@@ 45909
Manuel 45906
Hen@@ 45887
Zi@@ 45874
examine 45867
symptoms 45866
mp@@ 45848
Nepal 45834
24@@ 45825
ances 45820
gam@@ 45811
Nar@@ 45806
Organisation 45806
Burns 45794
frustration 45790
ish@@ 45786
fu@@ 45785
openly 45784
at-@@ 45746
Ju@@ 45744
tools 45743
bidding 45743
Deutsche 45731
choices 45728
140 45715
Jay 45710
hospitalized 45705
hurricane 45701
pattern 45692
AH@@ 45690
ron@@ 45679
comply 45669
Industry 45669
Jiang 45665
chicken 45659
Liberal 45649
undermine 45642
Much 45636
ema 45617
Tech 45613
fleeing 45597
Timor 45596
0.5 45595
-led 45589
divorce 45575
Tro@@ 45568
tier 45564
es-@@ 45558
severely 45547
cap@@ 45547
declining 45546
featuring 45544
proven 45539
conducting 45533
fleet 45529
hi 45527
basically 45516
Rec@@ 45516
Crown 45515
marched 45515
Europeans 45491
overwhelming 45490
Agriculture 45487
admit 45477
Credit 45475
SO@@ 45459
impoverished 45457
dad 45451
li 45449
deciding 45429
user 45424
spotted 45400
ili@@ 45390
televised 45381
Globe 45368
endorsed 45362
zo 45358
Aziz 45356
bun@@ 45354
preferred 45346
dedicated 45341
Knicks 45334
reflects 45324
swimming 45323
sive 45321
jurors 45295
Port 45295
blocking 45286
7.5 45281
tis 45275
Nancy 45275
Slobodan 45270
double-@@ 45266
Hughes 45256
guest 45252
tee 45249
ological 45248
OL@@ 45240
Director 45239
Up 45219
neighborhoods 45204
negotiator 45194
Best 45187
ised 45185
dee 45185
creative 45183
enable 45180
tribute 45172
Marshall 45166
Hy@@ 45160
gaining 45158
-and-@@ 45142
entrance 45138
ston 45137
Freedom 45135
Senior 45134
ther 45134
kitchen 45127
Music 45119
confirmation 45105
Murphy 45105
IBM 45093
Kat@@ 45083
Albania 45063
Richardson 45059
Juventus 45053
purposes 45034
pping 45030
northeastern 45028
birdie 45024
Ahmad 45009
honest 45000
provision 44985
rebuild 44980
spectacular 44968
Whether 44950
met@@ 44941
batting 44931
first-round 44926
ades 44916
testify 44875
McDonald 44872
40-@@ 44862
2,500 44854
flowers 44853
soared 44845
Rad@@ 44830
Lev@@ 44815
Defence 44813
fruit 44806
watchdog 44790
hosted 44780
illa 44774
dramatically 44751
Land@@ 44748
prayer 44746
land@@ 44744
AT&T 44734
MAY 44724
courtroom 44715
Melbourne 44706
fence 44705
mounted 44686
roots 44660
comp@@ 44632
hat 44632
offset 44631
exciting 44621
privately 44615
breakthrough 44613
Uganda 44611
notion 44592
Mario 44589
accepting 44587
sson 44587
Armed 44586
On@@ 44576
label 44570
Intel 44556
18th 44553
SARS 44547
funny 44546
rolling 44545
gradually 44545
preserve 44543
Given 44528
Reid 44505
uniform 44505
Coach 44500
Bad@@ 44494
enrichment 44488
attached 44484
Ay@@ 44483
Mail 44480
seven-@@ 44476
sophisticated 44476
de-@@ 44476
Hamid 44465
operates 44456
gather 44449
humanity 44442
bor@@ 44441
slip 44440
counterparts 44440
slammed 44436
requiring 44421
vaccine 44412
Bhutto 44402
Tal@@ 44373
consulting 44357
rescued 44356
hal@@ 44355
raw 44352
unacceptable 44344
invested 44340
ba@@ 44329
campaigning 44326
Stanford 44325
tru@@ 44306
HO@@ 44306
arts 44298
valued 44285
Milwaukee 44282
Moslem 44279
Can 44258
1976 44239
Sergei 44214
bon@@ 44209
Mediterranean 44207
Charlie 44197
sorry 44195
import 44194
accidents 44193
triumph 44188
abandon 44185
institute 44180
nationals 44174
Gran@@ 44174
faction 44163
ocean 44163
charter 44137
Mass. 44129
lan@@ 44105
portfolio 44101
grabbed 44099
rallies 44095
Everybody 44086
Military 44086
paint 44078
eu@@ 44069
tunnel 44063
mate 44057
publishing 44055
inspection 44045
lers 44040
Gri@@ 44037
slowed 44028
Albright 44024
maintenance 44021
regulatory 44009
ency 44008
nominated 43991
gre@@ 43987
Tommy 43980
Convention 43969
Jordanian 43958
Ka@@ 43930
Constitution 43928
1974 43916
rumors 43907
m-@@ 43902
mel@@ 43901
depend 43900
125 43883
Hel@@ 43882
Ban 43870
Pet@@ 43864
gear 43863
formerly 43850
Merkel 43843
uncertain 43804
mainstream 43787
oh 43780
expense 43775
cleric 43770
signals 43763
Af@@ 43760
2.2 43750
ap 43744
Hum@@ 43726
ank@@ 43722
eau 43706
magnitude 43702
Aviv 43696
four-year 43695
Roberto 43689
voiced 43680
Fer@@ 43674
crews 43672
painted 43665
Lam@@ 43645
trail 43641
preparation 43638
cope 43634
Speaker 43633
clock 43624
bil@@ 43624
Pu@@ 43617
ett 43604
Land 43597
MOVED 43595
stopping 43577
unexpected 43573
Aristide 43573
vessels 43564
involves 43558
gallon 43545
Sampras 43537
DO@@ 43532
engage 43530
cheaper 43511
Billy 43510
Buffalo 43505
readers 43504
assigned 43498
nee 43491
devoted 43488
Des@@ 43485
climb 43471
equipped 43464
Kurds 43462
searched 43455
Damascus 43446
Norman 43429
sank 43416
bureau 43414
budgets 43413
ram@@ 43412
samples 43407
ati 43398
hard-@@ 43398
Av@@ 43391
Jennifer 43391
Kofi 43391
Watson 43387
predict 43374
integration 43363
defendant 43360
state-owned 43356
TR@@ 43336
maintaining 43326
critic 43316
Mideast 43311
las 43306
crazy 43291
mut@@ 43291
corporations 43277
invitation 43271
avoided 43270
channels 43267
employed 43263
Perez 43263
Muhammad 43257
babies 43250
shouted 43246
ye 43229
sells 43225
WORLD 43209
NE@@ 43205
pitching 43204
Yu@@ 43196
ry@@ 43193
24-@@ 43190
articles 43190
mag@@ 43153
engines 43147
spreading 43143
matched 43143
priests 43138
legacy 43126
curb 43124
tical 43116
Kor@@ 43110
guaranteed 43101
foul 43096
3:@@ 43096
2014 43094
survival 43093
useful 43092
singing 43088
disabled 43057
substance 43034
P. 43027
easing 43024
storage 43020
10,@@ 43012
ek@@ 43008
tt 43000
strained 42993
troubles 42992
pr@@ 42986
pin@@ 42986
nights 42985
situations 42969
relationships 42962
Parker 42944
brands 42933
circle 42932
Maj. 42903
Yo@@ 42899
Koizumi 42892
stunning 42890
household 42887
raises 42881
exchanges 42876
Bloomberg 42871
Cro@@ 42866
bullets 42863
Express 42862
engineers 42850
yn 42848
single-@@ 42840
Neil 42814
Everything 42808
sued 42806
ass 42795
Cu@@ 42789
rains 42773
legally 42764
itation 42761
torn 42758
devastated 42746
FDA 42744
ake 42735
kh@@ 42731
slight 42728
operators 42712
gambling 42706
marking 42677
difficulty 42656
strange 42652
peninsula 42650
flee 42648
Hu 42645
ANY 42643
implementation 42642
Duke 42620
reactor 42616
TO@@ 42610
obligations 42587
succeeded 42579
Secretary-General 42564
Transportation 42564
Intelligence 42527
slowing 42514
impressed 42508
pence 42505
hl 42503
high-tech 42501
Romney 42490
deputies 42476
weaker 42445
celebrity 42444
Hills 42437
Ta@@ 42428
mi 42419
all-time 42418
Anwar 42415
Having 42388
Country 42384
hang 42383
fer 42378
regret 42377
expression 42370
1972 42370
forever 42364
III 42348
Twitter 42342
hometown 42331
Villa 42330
emerge 42323
quarterfinals 42319
ees 42300
Victoria 42297
acquire 42297
murders 42291
fil@@ 42290
tool 42276
taxpayers 42274
Nixon 42273
Salt 42247
participating 42246
cruise 42245
Arkansas 42244
ahl 42244
fault 42242
tale 42240
euro1 42231
BE@@ 42228
ory 42226
petition 42225
preventing 42214
Sho@@ 42200
decisive 42194
ovic 42187
but@@ 42185
Winter 42182
25.@@ 42182
Michel 42176
function 42162
deemed 42160
strategist 42159
immigrant 42148
Jon 42124
19-@@ 42123
marijuana 42120
willingness 42115
lim@@ 42102
Field 42088
neighbouring 42083
manufacturer 42064
revenge 42063
cer@@ 42060
ements 42056
breakaway 42055
22-@@ 42053
ammunition 42046
Rwandan 42041
violating 42003
Garden 41998
Uni@@ 41997
Keith 41995
checked 41992
charging 41989
header 41984
ch-@@ 41973
ultimate 41973
dies 41963
Electric 41961
180 41952
tes 41949
muscle 41937
Sea@@ 41932
ner@@ 41929
preparations 41927
integrity 41909
gro@@ 41908
ished 41882
residential 41876
visa 41875
Conservative 41846
WHO 41841
yed 41828
Safety 41814
Dev@@ 41768
LO@@ 41764
eta 41758
UCLA 41745
vel@@ 41721
ero@@ 41715
seeded 41701
childhood 41690
Ok@@ 41686
Albert 41683
Investigators 41683
fre@@ 41672
municipal 41664
:@@ 41659
sman 41653
Kas@@ 41634
Laura 41614
hunger 41607
Euro 41597
purchases 41596
pursuing 41585
occasion 41583
Back 41582
policeman 41572
conventional 41562
fragile 41553
multi-@@ 41551
ore@@ 41551
Leader 41550
panic 41550
hung 41547
retire 41547
ahl-@@ 41540
Ethiopia 41535
refuse 41514
scope 41505
oring 41475
lasting 41473
efficient 41469
Danny 41460
folks 41456
universities 41453
suspend 41445
har 41440
holders 41434
Wells 41427
ste@@ 41426
Revolutionary 41411
ately 41410
Ann 41383
Treaty 41369
insisting 41343
respectively 41343
blasts 41342
assess 41336
documentary 41327
hill 41325
keen 41323
quietly 41320
Braves 41314
Nothing 41267
dr@@ 41254
worthy 41252
Cur@@ 41250
acceptable 41246
fined 41245
ila 41235
discipline 41225
disappointment 41215
PLO 41207
ato 41197
full-@@ 41191
promoted 41169
Mid@@ 41166
lucrative 41163
Brad 41137
contains 41129
barrier 41123
Hawaii 41115
nose 41104
shook 41090
Francis 41086
ought 41080
ow 41062
turnover 41057
Drug 41045
por@@ 41041
horses 41039
1978 41039
clinic 40991
2.4 40989
receiver 40983
economics 40980
pur@@ 40977
venue 40973
awa 40961
asset 40961
sey 40958
balanced 40957
enclave 40954
exception 40943
spin 40920
Agassi 40906
Pa@@ 40905
sidelines 40899
holidays 40899
Ph@@ 40883
Ronaldo 40882
26.@@ 40882
arranged 40879
ard@@ 40877
anda 40876
SP@@ 40873
Community 40871
men@@ 40871
Camp 40863
bearing 40849
Jihad 40848
customs 40847
forth 40840
damaging 40809
G. 40798
centuries 40785
Robin 40782
ud 40782
WITH 40782
Floor 40772
suspicious 40755
maintains 40754
united 40724
ate@@ 40716
Wisconsin 40711
pon@@ 40701
arena 40697
greeted 40684
anna 40684
gunfire 40667
proceed 40665
aspects 40661
triple 40657
defined 40656
asks 40646
properties 40602
teenager 40601
brokerage 40593
planted 40590
sits 40587
Hernandez 40585
disclose 40583
ports 40572
ink 40569
Pas@@ 40567
fines 40563
Zaire 40563
frame 40556
personality 40555
bedroom 40554
sting 40530
Dr 40495
Greenspan 40464
mere 40462
practical 40453
youngest 40442
dol@@ 40435
Cer@@ 40434
Early 40421
lic@@ 40415
celebrations 40403
barriers 40401
Telecom 40398
Kra@@ 40386
lat@@ 40385
O'Neal 40379
Ari@@ 40375
citizenship 40362
23.@@ 40361
Mahathir 40356
ational 40335
WorldSources 40335
oms 40325
videos 40313
exercises 40303
dge 40293
perspective 40289
Science 40287
Maine 40279
doping 40274
Independent 40262
Cypriot 40261
breast 40259
travelers 40256
Around 40252
Bruins 40237
Vel@@ 40233
Suharto 40224
prayers 40209
sole 40204
FOR 40178
floods 40177
battered 40169
All-Star 40163
deeper 40160
IA 40145
tan@@ 40143
joy 40134
crop 40122
overhaul 40119
thank 40110
plagued 40100
ishing 40083
tower 40065
demonstrate 40064
Governor 40062
int@@ 40047
Charlotte 40043
kingdom 40043
flames 40037
quest 40028
Por@@ 40026
height 40023
Sti@@ 40019
cat 40018
youths 40013
Hun@@ 40011
Jar@@ 40009
Kenneth 40007
Petroleum 40003
ries 40000
therapy 40000
Vancouver 40000
strokes 39999
describing 39998
impression 39983
Cole 39983
passion 39981
automaker 39976
son@@ 39974
secular 39967
protested 39958
alizing 39934
mortar 39915
soaring 39913
Jane 39905
diplomacy 39897
Industrial 39897
teach 39882
recalls 39878
fortune 39875
birdies 39861
constantly 39845
Democracy 39842
sto@@ 39841
praise 39833
Lea@@ 39817
Taiwanese 39812
Basque 39810
murdered 39808
miners 39802
Birmingham 39800
putt 39792
farms 39791
MEDIA 39789
Clarke 39782
listening 39769
Pin@@ 39764
forming 39757
examined 39756
ve-@@ 39751
Guinea 39740
rou@@ 39739
intends 39738
commentary 39733
Fax 39727
0-0 39715
ly-@@ 39715
southeastern 39711
Bun@@ 39702
rep@@ 39700
d'@@ 39697
method 39680
shareholder 39680
sheet 39675
Doctors 39662
lessons 39662
kin@@ 39662
iness 39658
St 39641
separatists 39639
subway 39635
Stone 39630
Portland 39622
planet 39606
objective 39595
encounter 39585
Lar@@ 39572
cattle 39564
Forest 39552
submit 39548
Sin@@ 39540
ie@@ 39531
0.2 39517
replacing 39506
surveyed 39504
scrutiny 39501
wheel 39501
revive 39495
star@@ 39495
Chad 39484
Anne 39479
Sy@@ 39473
sec@@ 39465
lake 39458
imported 39454
Rouge 39453
pet 39453
stepping 39446
fare 39438
Bil@@ 39436
lied 39433
Election 39416
Bay@@ 39412
bullet 39409
nn 39406
Orange 39400
consistently 39392
Schumacher 39385
aci@@ 39348
ENGLISH 39340
Town 39334
crown 39331
show@@ 39331
Kir@@ 39331
MI@@ 39330
heating 39329
bolster 39323
AI@@ 39323
storms 39315
Unfortunately 39310
Mrs 39309
Rob@@ 39294
craft 39291
drafted 39285
sk 39277
23@@ 39276
5.5 39275
finger 39259
LE@@ 39248
tion@@ 39243
Javier 39240
tt@@ 39238
WITHOUT 39238
spo@@ 39227
med@@ 39225
hip 39212
remembered 39205
stunned 39194
entitled 39191
19th 39185
Obviously 39183
Legislature 39176
ologists 39171
framework 39170
sexually 39159
finances 39157
smo@@ 39147
athlete 39145
photographer 39145
library 39142
Anna 39133
dubbed 39132
amb@@ 39124
flo@@ 39124
tournaments 39111
USED 39107
discount 39094
cul@@ 39094
Kandahar 39093
rebellion 39075
rer 39069
collective 39067
transactions 39054
ty@@ 39036
spill 39035
rem@@ 39030
rac@@ 39014
Ted 39005
Hutu 39003
colony 39002
pole 38998
programming 38989
.org 38983
semifinal 38979
Out@@ 38974
PENNSYLVANIA 38971
subsequent 38959
che@@ 38952
classified 38951
somehow 38951
Libyan 38942
northwestern 38939
1950s 38936
2-2 38922
ma@@ 38921
correspondent 38920
belt 38917
incentives 38917
Ivan 38914
S.E. 38900
crops 38884
weakened 38883
militias 38881
AHR 38870
VENTURE 38867
counties 38856
cow 38844
vis@@ 38839
Wa@@ 38821
ears 38821
dish 38817
separated 38815
temperature 38813
stakes 38803
Kabila 38801
hah-@@ 38789
solo 38788
airstrikes 38788
Bahrain 38783
COPYRIGHT 38776
2.3 38772
ide 38765
Ecuador 38759
JOINT 38759
lifetime 38749
reviews 38747
MATERIALS 38744
Glenn 38739
psychological 38720
costly 38715
AVENUE 38711
ATTRIBUTION 38701
CONTAINED 38698
PORTION 38696
Bab@@ 38694
HEREIN 38692
shadow 38690
snow@@ 38687
FDCH 38687
20003 38683
pers 38682
sponsors 38675
202-546-4194 38666
202-547-4512 38662
Valencia 38659
bo 38656
antly 38647
silent 38645
ome 38634
lobby 38628
bowl 38624
ick@@ 38621
olo@@ 38611
dragged 38606
appearing 38576
eth@@ 38568
nonprofit 38566
conversations 38543
van@@ 38537
Catholics 38526
belonging 38518
ened 38515
outskirts 38510
earning 38509
Angola 38502
Cardinals 38494
firmly 38493
Viktor 38493
pin 38485
i-@@ 38482
shortage 38473
ited 38466
spare 38466
roadside 38454
Sou@@ 38439
Est@@ 38438
0.1 38437
ici@@ 38434
loud 38427
beneath 38426
tin@@ 38424
shattered 38408
designated 38396
Bulls 38393
lows 38383
complain 38380
thoughts 38376
drives 38371
0.3 38366
speaks 38359
250,000 38355
gifts 38354
IS 38353
incredible 38353
rushing 38346
Victor 38340
imp@@ 38337
K. 38326
substitute 38319
sized 38319
dic@@ 38314
apology 38312
wor@@ 38311
burg 38302
ris@@ 38298
radar 38297
halftime 38295
expelled 38293
iled 38283
Fe@@ 38275
opera 38274
Lama 38266
ASIA 38254
accurate 38240
zones 38236
Call 38235
virtual 38234
lobbying 38231
neutral 38219
tal@@ 38219
arrangement 38217
accuse 38197
by@@ 38193
Rafael 38191
versions 38188
publicity 38180
fake 38174
improvements 38173
26@@ 38171
Princess 38169
kilograms 38166
pressures 38161
fueled 38156
Sinn 38155
EH 38140
pa@@ 38132
object 38130
Holdings 38128
sel 38128
Third 38124
4-1 38123
theft 38122
comparison 38120
1,200 38117
acknowledge 38116
bulk 38108
Slovenia 38103
hy@@ 38096
wal@@ 38094
Golf 38092
Corps 38091
desk 38086
ter-@@ 38065
2.6 38063
C-@@ 38062
fur@@ 38057
Memorial 38055
avi@@ 38049
businessmen 38032
Revolution 38018
sta 38014
shipments 37993
Aaron 37978
scattered 37977
Duncan 37969
Jam@@ 37965
hardline 37965
Star@@ 37961
flu@@ 37959
siege 37951
supporter 37948
rocks 37932
Total 37922
sponsor 37918
pper 37902
lab 37894
outrage 37884
exclusive 37879
st-@@ 37876
trigger 37871
wireless 37862
scared 37855
Ankara 37850
Investment 37849
sisters 37844
Eddie 37829
ours 37828
comfort 37824
Gun@@ 37823
fy 37807
pa 37807
bonus 37797
Super@@ 37788
drought 37784
eled 37779
offshore 37775
minorities 37772
fights 37753
Somali 37748
sounded 37748
hs 37748
ards 37747
Mis@@ 37746
acre 37746
slalom 37744
39@@ 37724
13th 37721
seemingly 37720
Dec@@ 37713
wooden 37711
generations 37699
Lehman 37699
AR 37692
sporting 37685
hitter 37677
objects 37675
Ly@@ 37667
alization 37650
inner 37638
Bali 37621
Arroyo 37621
regardless 37606
describes 37601
opposing 37601
downs 37599
priced 37585
Palestine 37584
Jamaica 37581
inevitable 37568
lesson 37568
produces 37566
occasionally 37556
fication 37555
ining 37550
gangs 37541
+ 37538
Vincent 37523
retaliation 37518
laboratory 37507
assumed 37502
restricted 37492
Paulo 37492
Liu 37489
speeches 37473
extending 37470
adjusted 37465
ss@@ 37446
roster 37427
Cri@@ 37420
Kil@@ 37416
tsunami 37412
brilliant 37405
cautioned 37401
organizing 37401
second-largest 37396
OR 37394
Fein 37384
diagnosed 37382
Liberia 37375
ast 37365
Protestant 37346
depending 37329
topped 37324
Del 37321
ture 37321
contractors 37321
resolutions 37321
mystery 37314
Dem@@ 37311
promotion 37295
ED@@ 37288
Nadal 37286
tag 37285
spell 37273
yan 37265
CD 37263
Forum 37251
hike 37247
Stuart 37237
suggestions 37229
teen 37224
Med@@ 37222
lengthy 37220
NO@@ 37215
reward 37211
PA 37201
1.9 37190
bio@@ 37185
Rico 37179
Venezuelan 37178
contention 37170
saves 37164
meal 37160
Sharif 37150
gue 37145
Tr@@ 37140
PO@@ 37133
context 37131
twin 37131
landscape 37131
aftermath 37130
io 37126
ier 37123
cro@@ 37119
Maj@@ 37114
cooking 37110
ceiling 37105
elle 37104
Istanbul 37100
soci@@ 37100
shortages 37095
,000-@@ 37081
aggression 37074
excessive 37068
impeachment 37064
1968 37062
Bond 37058
any@@ 37055
Within 37048
paintings 37040
ington 37022
one-time 37006
AY@@ 36969
warn 36967
arian 36959
Ca@@ 36954
Nevada 36953
450 36951
Doug 36950
6.5 36943
eless 36937
Average 36928
profitable 36911
27.@@ 36911
midday 36904
Staff 36902
ello 36902
DAY 36902
Rogers 36896
Amnesty 36884
cream 36876
scenario 36873
accords 36856
-LSB- 36834
holder 36827
F-@@ 36812
Dur@@ 36805
gunman 36798
element 36794
ula 36792
Almost 36781
ante 36761
we@@ 36756
Opposition 36750
cri@@ 36747
ferry 36747
T-@@ 36739
governors 36738
cal@@ 36734
destination 36729
perfectly 36727
24.@@ 36724
nine-@@ 36722
formation 36722
cel@@ 36709
Fernandez 36707
eed 36674
water@@ 36674
rubble 36671
opposes 36645
Congressional 36631
afterward 36615
Ramallah 36614
IT 36609
consortium 36606
credited 36598
criticised 36597
engagement 36595
gen 36582
Kri@@ 36575
school@@ 36565
chairs 36554
arm@@ 36543
pres@@ 36524
ich@@ 36521
zes 36521
intend 36501
elect 36500
depth 36493
uk@@ 36492
stro@@ 36483
boxing 36478
tropical 36469
rhetoric 36465
Ferrari 36445
gesture 36442
16th 36432
mentally 36431
establishing 36424
gray 36414
premium 36410
confusion 36395
aces 36394
Cricket 36392
Fal@@ 36388
publish 36387
abducted 36383
ethics 36382
rie 36382
jobless 36375
ignore 36369
shells 36346
hon@@ 36341
tragic 36335
Centre 36335
rap@@ 36332
responding 36322
Bonds 36316
formula 36314
Alberto 36313
blown 36290
harassment 36285
accuses 36275
Cooper 36271
adi 36270
EM@@ 36259
17th 36251
tre@@ 36248
Tim@@ 36241
OP@@ 36241
Sto@@ 36234
hur@@ 36228
Michelle 36224
financed 36223
safely 36218
rit@@ 36213
T. 36207
angered 36198
origin 36196
Worth 36187
connections 36180
225 36171
-RSB- 36163
Protection 36156
mas@@ 36156
ku@@ 36151
illo 36148
Shah 36148
Through 36143
pursuit 36137
snapped 36133
21st 36125
GO@@ 36124
cy 36120
displayed 36115
Miguel 36110
2.7 36109
ef 36105
14th 36101
Kaz@@ 36081
Against 36076
argues 36061
predominantly 36046
Ali@@ 36044
BA 36037
educational 36031
Dominican 36030
reviewed 36029
checking 36023
ith 36023
Tan@@ 36022
dreams 36018
Studies 36017
furniture 36010
Nu@@ 36009
Mut@@ 36008
al-Qaeda 36008
Bir@@ 36001
intensive 35990
Nicholas 35985
Celtics 35985
lion 35984
Burma 35983
Did 35981
initiatives 35973
Whatever 35971
ough 35966
administrator 35960
Action 35958
wanting 35947
stormed 35934
Van@@ 35925
chiefs 35919
robbery 35902
ris 35898
4-6 35896
1973 35887
partial 35886
ATP 35885
ander 35873
cou@@ 35869
draws 35869
wrongdoing 35859
Blake 35858
reacted 35850
perceived 35850
Coalition 35842
scandals 35841
ami 35839
lowered 35837
29.@@ 35837
Pap@@ 35835
eggs 35832
Franklin 35831
Dalai 35826
brown 35823
corrupt 35808
compliance 35806
glad 35804
armored 35801
medium 35799
branches 35795
Rob 35792
dust 35785
rank 35782
Kin@@ 35781
blaze 35780
vic@@ 35772
iz@@ 35769
Celtic 35762
notorious 35760
parks 35748
Monica 35748
observed 35740
Hugo 35738
controlling 35732
Stevens 35711
Sao 35703
Wallace 35684
declines 35683
shaped 35681
borrowing 35677
courses 35677
Ul@@ 35676
credible 35663
stomach 35662
bread 35659
pos@@ 35648
sand 35641
Justin 35625
educated 35622
implemented 35601
Late 35587
achievement 35582
timetable 35581
poorest 35579
itz@@ 35574
stripped 35565
breach 35549
Angel 35549
Bea@@ 35544
quarterly 35543
Benedict 35542
nik 35541
linking 35535
Chan 35521
alarm 35511
opinions 35510
Gro@@ 35510
ffs 35507
queen 35505
4th 35500
emphasis 35498
West@@ 35498
spar@@ 35487
bottle 35486
territorial 35484
ker@@ 35478
register 35467
experiences 35466
imminent 35466
Mitsubishi 35466
Met@@ 35440
genetic 35433
cubic 35420
play@@ 35416
az 35416
physically 35414
pit 35412
Lyon 35410
humor 35408
southwestern 35408
columnist 35407
Program 35403
then-@@ 35403
Jun@@ 35402
efficiency 35398
lab@@ 35395
stationed 35383
mul@@ 35381
Whit@@ 35380
audiences 35378
poised 35374
explains 35364
um-@@ 35361
aka 35358
smooth 35349
15th 35346
pped 35344
routinely 35343
downhill 35343
Ny@@ 35328
Nat@@ 35312
Project 35305
150,000 35288
absolute 35285
shell 35282
reception 35273
clashed 35269
pocket 35262
Fidel 35260
ros@@ 35259
37@@ 35256
actively 35253
Buchanan 35250
mud 35248
uk 35243
brokers 35237
Political 35232
100-@@ 35232
Max 35219
tech 35216
Pierre 35215
relay 35209
graf 35203
oning 35202
magazines 35201
sum 35200
Fran@@ 35199
blind 35193
750 35189
Final 35180
reg@@ 35174
Ehud 35172
walks 35164
investing 35164
grenades 35162
placing 35137
deserve 35135
Knight 35133
tariffs 35123
Beckham 35111
emp@@ 35103
vocal 35102
month-old 35101
O'Neill 35101
concentrate 35097
Elsewhere 35091
rifles 35088
boosting 35072
chapter 35070
athletic 35066
eda 35057
shootings 35050
eries 35040
bones 35035
nurse 35034
inv@@ 35024
Croat 35019
transit 35018
28.@@ 35010
da@@ 35009
Medvedev 35006
noon 35002
sleeping 34977
permitted 34976
orange 34975
atop 34972
priorities 34968
Gol@@ 34958
Ah@@ 34953
Ven@@ 34951
-year-old 34950
Consumer 34941
drilling 34934
Look 34926
Abdel 34925
donated 34916
Bridge 34908
Khmer 34901
pickup 34894
migrants 34891
electrical 34879
ele 34876
suburbs 34871
big-@@ 34860
vin 34856
Results 34830
Wal-Mart 34826
tle 34822
transaction 34822
BC-@@ 34821
detected 34818
robust 34815
Night 34813
scorer 34808
elling 34804
Kuala 34802
s/@@ 34800
punished 34796
measured 34790
kph 34787
Green@@ 34780
throws 34772
admits 34770
inspector 34770
removal 34765
authors 34741
Jeffrey 34727
Grozny 34706
Command 34699
latter 34698
tally 34697
AHL 34697
ambitions 34693
ums 34683
baht 34683
low@@ 34682
work@@ 34666
red@@ 34663
dancing 34656
colonial 34656
techniques 34655
one-third 34646
runners 34645
Arena 34641
Madison 34639
brokered 34637
battled 34626
indicates 34600
grants 34598
EE@@ 34592
golden 34590
steadily 34573
soul 34566
weighed 34552
collision 34549
cigarette 34546
ideal 34541
B-@@ 34529
Jorge 34525
government-@@ 34519
Bolton 34508
acks 34503
Ky@@ 34499
tracking 34496
approximately 34494
solutions 34490
Chiefs 34490
Der@@ 34471
Lazio 34461
approaching 34437
contend 34431
advocate 34427
od 34421
trader 34407
ordering 34392
appreciate 34367
NY@@ 34366
Bul@@ 34362
dependent 34361
casino 34331
trainer 34327
refuge 34323
jo 34323
requirement 34312
Kohl 34311
ripped 34308
anthrax 34306
diet 34305
objections 34294
sectarian 34293
appealing 34292
outgoing 34290
Broadcasting 34285
enforce 34278
abused 34260
atrocities 34257
GE 34254
chase 34253
professionals 34246
printed 34244
Rubin 34242
Burundi 34240
occasions 34233
os@@ 34222
adequate 34207
Go 34196
Devils 34193
celebrating 34180
Members 34174
inventories 34174
Systems 34171
eurozone 34168
automatically 34162
depression 34150
Cruz 34143
Rather 34140
dirty 34137
hr 34136
Tibetan 34128
permits 34124
Festival 34124
a-based 34123
moon 34121
Shell 34116
explaining 34114
bottles 34101
Yahoo 34101
laugh 34099
withdrawn 34089
sli@@ 34085
Montenegro 34080
fails 34051
0.4 34050
yo 34032
grenade 34031
Sm@@ 34025
ree 34017
AD 34013
antitrust 34013
Arnold 34007
bishops 33986
heroin 33970
ente 33970
bert 33966
sic 33956
smashed 33955
heated 33952
joke 33943
dia 33935
steep 33933
Flight 33926
surprisingly 33924
Black@@ 33924
3-6 33924
crushed 33914
worn 33898
backup 33898
Brent 33898
1970 33891
periods 33872
Laurent 33861
odd 33860
intellectual 33857
Award 33842
colleague 33834
trophy 33830
iling 33827
sacrifice 33823
hard@@ 33816
mes 33805
shrine 33802
wise 33796
Assistant 33784
incumbent 33782
Johnny 33777
contingent 33771
rebuilding 33770
yu@@ 33756
highlighted 33742
signature 33737
amnesty 33734
2.1 33732
processing 33729
destroying 33714
rubber 33710
Ji@@ 33710
ble@@ 33708
disarm 33693
courage 33691
declaring 33689
headlines 33683
eds 33672
enthusiasm 33667
reserved 33665
introduction 33665
ide@@ 33661
Ken@@ 33661
prof@@ 33657
ll@@ 33655
Joint 33636
Tottenham 33625
Baseball 33625
Australians 33621
Ward 33619
caution 33613
contested 33608
concentration 33608
Dam@@ 33607
knife 33603
U.K. 33603
marathon 33599
Cou@@ 33596
Mol@@ 33587
stretched 33585
skeptical 33585
suggestion 33583
9,000 33581
Robertson 33581
ET 33579
Ur@@ 33578
epidemic 33568
commerce 33567
Lisa 33567
Round 33562
holdings 33561
grip 33558
boyfriend 33556
terminal 33543
intervene 33540
Ob@@ 33538
pays 33533
icon 33532
Kenyan 33520
advisory 33518
near-@@ 33517
delighted 33511
figured 33509
treating 33508
Pataki 33508
Fu@@ 33505
ei 33500
runway 33490
wheat 33489
evacuation 33486
1977 33486
shake 33469
Copenhagen 33467
RM@@ 33447
Lieberman 33432
spotlight 33429
flooded 33428
stic 33426
chanted 33416
Karachi 33414
Thomson 33412
sem@@ 33406
technologies 33398
lit 33397
nowhere 33393
Jer@@ 33391
Kazakhstan 33385
Res@@ 33359
Assad 33356
2.8 33355
breakfast 33349
fri@@ 33345
Universal 33343
voices 33338
talented 33329
4-0 33322
gging 33318
Experts 33317
vo 33310
Foster 33310
Lumpur 33307
Northwest 33302
heightened 33300
AOL 33289
jumping 33279
concerning 33275
Brooks 33274
select 33272
delivering 33267
sou@@ 33263
colors 33260
bold 33258
Son@@ 33257
Dra@@ 33245
confessed 33242
pel@@ 33235
pot@@ 33231
sley 33227
Lankan 33218
decree 33213
'S 33208
AB@@ 33207
Jamie 33198
awareness 33198
belong 33175
setback 33170
foods 33167
Angela 33162
favour 33161
narrowly 33155
Starr 33149
belonged 33146
removing 33138
lee 33136
cancel 33135
Marco 33127
rocked 33126
Me 33124
Buddhist 33122
Christie 33115
ops 33114
lifestyle 33110
strengthening 33110
shy 33109
Finally 33104
releases 33103
script 33103
retreat 33100
ized 33098
ex 33086
nie 33084
dre@@ 33077
guarded 33052
SC@@ 33052
Reed 33052
Virgin 33047
Hewitt 33042
Khartoum 33040
root 33034
admission 33030
Il@@ 33027
reliable 33025
12,000 33021
Lady 33016
hell 33014
households 33006
bow 33003
Theater 33002
definition 32999
ren 32999
lik@@ 32997
Part 32989
Indianapolis 32987
credits 32973
attendance 32956
bloodshed 32949
ech 32937
eva 32935
Hil@@ 32930
Lithuania 32926
Op@@ 32918
legend 32917
Samuel 32915
IM@@ 32914
noise 32912
home-@@ 32911
Forbes 32906
N.J. 32903
components 32886
warplanes 32877
MP 32876
Kur@@ 32875
symbolic 32875
blo@@ 32869
defenders 32863
prescription 32856
protesting 32849
witnessed 32846
Afghans 32842
Policy 32834
prisons 32831
bands 32829
Amsterdam 32826
researcher 32814
qualifier 32798
organize 32798
ple 32797
Racing 32796
donor 32792
relevant 32789
salt 32780
EL 32773
pul@@ 32761
Raymond 32758
posting 32757
ida 32751
Ramos 32750
Oliver 32746
Circuit 32736
high-level 32728
shall 32725
cross-@@ 32711
Pedro 32710
Spurs 32710
sia 32708
Mikhail 32699
immunity 32699
Leon 32694
railway 32676
3.2 32666
ills 32663
Entertainment 32658
Azerbaijan 32656
friendship 32651
Wood 32644
sworn 32639
Zhang 32638
se-@@ 32635
rises 32634
Raul 32630
assurances 32628
guided 32624
ete 32617
collecting 32614
Butler 32611
VI@@ 32610
subjects 32597
tra 32589
tires 32585
seal 32581
dominate 32571
advances 32566
Rodham 32565
ans@@ 32546
well-known 32543
Da@@ 32541
responsibilities 32540
eck 32538
packages 32532
structures 32532
sections 32530
Leone 32529
aking 32509
Petersburg 32506
bogey 32501
dest 32500
architect 32497
automakers 32479
Dozens 32476
justify 32473
Pur@@ 32469
Aceh 32465
oriented 32458
invaded 32454
enjoying 32438
disclosure 32415
monitored 32411
bears 32404
specialists 32402
raided 32400
poured 32395
realistic 32387
Point 32379
dent 32376
Pra@@ 32376
committees 32366
Nine 32365
dissidents 32348
aggressively 32347
Latvia 32338
clay 32336
Randy 32335
ym@@ 32335
cult 32330
Silver 32330
pro-democracy 32317
Casey 32311
ho 32309
contemporary 32307
divide 32305
AF@@ 32298
supreme 32293
Ramirez 32290
drinks 32287
Os@@ 32287
lining 32286
separately 32285
experiment 32281
instructions 32280
genuine 32268
accounted 32265
greatly 32258
passport 32257
Solana 32246
indicating 32233
hearts 32232
infl@@ 32224
High@@ 32218
candidacy 32213
participated 32213
Holy 32211
solar 32208
mandatory 32189
rupiah 32171
layoffs 32171
Formula 32167
AM 32159
cigarettes 32153
ences 32140
du 32135
Cambridge 32133
purchasing 32130
parked 32124
ira 32124
lethal 32113
tab@@ 32113
23-@@ 32108
freely 32105
dated 32101
risky 32100
LL@@ 32099
bankers 32099
exporters 32094
deficits 32087
th-seeded 32077
cartel 32077
trends 32071
min 32063
Yang 32062
ringgit 32061
ger@@ 32059
interference 32059
fa@@ 32057
punish 32053
Sullivan 32045
regain 32025
Wel@@ 32024
eful 32023
fame 32020
Levy 32016
alists 32013
rear 32012
topic 32012
freshman 32003
shifted 31983
Hom@@ 31979
Kent 31973
short-@@ 31967
eling 31951
handing 31934
photograph 31929
loc@@ 31927
starring 31926
amp 31917
powered 31915
tent 31913
tim@@ 31903
react 31902
Linda 31897
sacked 31897
relaxed 31895
nationally 31894
Along 31892
cry 31890
Mars 31890
skating 31888
Eng@@ 31883
Uruguay 31872
echoed 31870
poorly 31869
distant 31860
Nazis 31854
sch 31854
hungry 31852
Stockholm 31852
Hudson 31846
Sheik 31832
mess 31830
bids 31829
baseman 31826
Margaret 31817
posing 31816
reflecting 31812
aro 31811
Cat@@ 31811
PL@@ 31805
Insurance 31802
lenders 31794
singled 31787
fol@@ 31784
ales 31781
BC 31778
Estonia 31778
Nebraska 31776
Sacramento 31774
Air@@ 31773
Chase 31772
Everton 31763
honored 31759
slower 31755
Francois 31750
homers 31747
Line 31742
tumbled 31740
forgotten 31731
aiming 31730
400,000 31718
imposing 31716
drag 31706
Africans 31700
Snow 31691
Environmental 31686
Lou@@ 31681
Aviation 31675
fun@@ 31674
swee@@ 31673
zy 31657
TA@@ 31657
une 31656
emphasized 31654
Ev@@ 31645
boundaries 31644
agreeing 31636
eventual 31635
expressing 31634
embrace 31633
Roddick 31632
34@@ 31609
NASCAR 31597
greenhouse 31596
riders 31596
screening 31592
six-month 31591
touchdowns 31590
Arts 31589
enberg 31584
visas 31583
slain 31583
exists 31578
literally 31564
acceptance 31563
FARC 31558
Reds 31545
intentions 31533
Croats 31531
monopoly 31527
unnamed 31520
FO@@ 31517
Derby 31509
grandmother 31505
wary 31504
Santos 31499
Roh 31498
wives 31483
loves 31483
outdoor 31483
Bennett 31480
0.6 31479
Eagles 31466
3rd 31459
pants 31457
grab 31456
racist 31455
ska 31436
ax 31415
fearing 31414
seize 31411
giants 31411
Karl 31403
toxic 31400
Lewinsky 31398
ade@@ 31392
hills 31386
recommend 31382
transmission 31380
technique 31374
Jean-@@ 31370
accomplished 31352
threatens 31338
bunch 31332
exhibit 31331
feld 31324
internationally 31321
connect 31317
ref@@ 31310
temple 31310
airplane 31309
Nissan 31297
Hay@@ 31293
Pierce 31286
O'Brien 31285
volunteer 31285
far@@ 31283
1945 31279
Blues 31277
two-time 31276
h-R@@ 31271
fitness 31270
two-run 31261
coxnews.com 31257
providers 31253
aker 31253
ails 31250
Wood@@ 31249
ben@@ 31247
sis 31243
tying 31240
creditors 31234
labour 31233
recommendation 31227
Take 31225
banning 31224
Oslo 31224
screens 31220
addressing 31219
ax@@ 31217
4:@@ 31215
UM@@ 31214
su 31210
Mac 31196
anxious 31190
skipper 31188
prosperity 31180
Kom@@ 31172
Euro@@ 31171
Columbus 31167
500-@@ 31164
prince 31163
cli@@ 31160
retailer 31148
blasted 31143
teenage 31138
anxiety 31138
rat@@ 31134
Said 31134
free-@@ 31133
recruiting 31132
Pres@@ 31119
3.3 31118
wishes 31113
philosophy 31104
Lloyd 31102
heavyweight 31096
Sen 31094
Hitler 31092
deposits 31089
urs 31085
jan 31084
Hunter 31083
averaged 31078
49@@ 31076
deliberately 31070
Karen 31070
cousin 31067
Citigroup 31067
ush 31064
Algerian 31064
hosting 31058
margins 31058
poultry 31056
Gold@@ 31053
Ghana 31051
guidance 31049
Aung 31043
Cel@@ 31039
tran@@ 31032
specify 31029
dumped 31027
ECB 31027
dar@@ 31020
ic-@@ 31010
mom 31008
dered 31006
sul@@ 31001
whites 30998
yl@@ 30990
0,000 30989
bly 30983
elder 30979
reductions 30974
taxi 30972
outlets 30968
ful@@ 30962
Ralph 30955
iner 30949
Def@@ 30941
Uzbekistan 30940
nursing 30927
gender 30920
Fisher 30915
favors 30915
sentencing 30912
secretary-general 30903
stole 30897
Harper 30897
Hang 30895
voluntary 30887
endorsement 30886
institutional 30869
quoting 30864
deploy 30863
complaining 30856
waving 30855
Kon@@ 30853
peacefully 30850
creates 30847
Gul@@ 30841
onic 30841
Likud 30838
book@@ 30838
Dublin 30836
err@@ 30826
Kol@@ 30824
dale 30821
ent-@@ 30814
Mariners 30813
stea@@ 30800
Hariri 30796
underway 30796
Condoleezza 30795
km 30788
populated 30787
reviewing 30781
smiling 30778
ceremonies 30777
Nevertheless 30770
hub 30758
overturned 30756
runner-up 30751
Anaheim 30751
Ric@@ 30746
feeding 30738
tenure 30729
Lions 30728
prestigious 30728
shelling 30728
bowler 30724
Arabic 30714
BR@@ 30708
haven 30704
unhappy 30704
Cambodian 30702
lar 30694
showdown 30692
Nas@@ 30681
Overall 30670
Mbeki 30670
row@@ 30667
poses 30663
generous 30661
28-@@ 30651
Sec@@ 30649
plain 30639
sample 30631
liber@@ 30630
1969 30627
Pearl 30624
capped 30621
dangers 30611
secrets 30611
teeth 30608
successive 30604
rai@@ 30600
Seng 30597
ured 30586
highs 30584
anonymous 30582
DS 30576
Light 30571
les@@ 30567
Criminal 30558
zh@@ 30557
rings 30555
wreckage 30549
suppliers 30546
con 30546
Bryan 30546
rin 30543
perception 30533
apartheid 30519
aa 30515
mar 30507
HAH 30505
fourth-@@ 30503
AG@@ 30503
slid 30501
sion@@ 30501
caps 30497
plotting 30483
sticking 30469
challenger 30465
esti@@ 30465
globe 30462
chasing 30462
Venus 30462
phenomenon 30456
Mother 30454
35-@@ 30447
oust 30447
pronounced 30446
knock 30445
Eli@@ 30434
Bailey 30406
ose 30404
breathing 30400
underwent 30399
founding 30398
clearing 30397
mall 30397
60-@@ 30391
African-American 30389
disorder 30386
goalie 30381
departments 30379
journal 30375
shipped 30361
cloud 30360
Bolivia 30358
fiction 30354
ill-@@ 30352
oun 30351
checkpoint 30351
unemployed 30351
Shane 30348
170 30348
Magic 30339
Writer 30339
Ethiopian 30337
Ho 30337
switched 30333
literature 30329
implications 30328
Sanders 30317
Hun 30317
house@@ 30314
nation@@ 30312
oversee 30307
exc@@ 30306
sprawling 30298
isolation 30293
org@@ 30290
precise 30287
Ir@@ 30284
excess 30283
vol@@ 30281
Metropolitan 30276
licenses 30271
left-@@ 30267
Romanian 30265
basket 30262
booming 30254
Has@@ 30243
choosing 30243
resumption 30243
lane 30240
rin@@ 30238
54@@ 30234
red-@@ 30233
gates 30230
utilities 30230
bans 30227
empire 30227
leagues 30223
explore 30223
hear@@ 30217
last-minute 30215
bombed 30200
Fame 30198
toppled 30197
evident 30191
pump 30190
immune 30182
jointly 30177
agrees 30168
Stern 30166
sav@@ 30165
solidarity 30161
27-@@ 30161
.com/@@ 30159
Erdogan 30154
rage 30153
ih-@@ 30151
eland 30143
reactors 30143
Witnesses 30139
Chang 30137
awi 30135
highlight 30131
supplied 30119
persons 30115
outright 30114
banner 30107
generals 30095
format 30091
pink 30081
Fa@@ 30081
killers 30080
Leeds 30078
Computer 30077
sympathy 30075
safer 30065
Water 30057
oli@@ 30056
hopefully 30045
disp@@ 30043
sin@@ 30042
the-@@ 30040
rifle 30038
climbing 30028
right-@@ 30020
criteria 30017
grandfather 30016
MPs 30015
bay 30009
diversity 30008
Awards 30006
Steel 30004
tips 30001
propaganda 30001
stealing 29997
resist 29992
Rus@@ 29992
aga 29991
Film 29986
Monaco 29981
ury 29974
minus 29972
tan 29959
horror 29952
Sachs 29951
winger 29931
Capt. 29927
pilgrims 29927
Queens 29919
oner 29916
pun@@ 29914
overwhelmingly 29913
Luxembourg 29909
subscribers 29905
USC 29901
Marcus 29890
struggles 29890
Morales 29889
rows 29888
istic 29886
ison 29882
examination 29881
oversight 29878
Pervez 29872
Haitian 29872
All@@ 29869
lessly 29866
tit@@ 29865
over-@@ 29860
sooner 29857
3.8 29857
PR@@ 29853
centered 29850
fantastic 29850
deb@@ 29850
Herald 29848
cleaning 29847
Dou@@ 29847
sty 29843
partially 29838
Tanzania 29836
sle@@ 29834
dt 29824
HL 29823
Balkans 29818
fies 29815
Frenchman 29812
com 29799
stranded 29792
Saf@@ 29792
enko 29791
han@@ 29783
Nicole 29781
26-@@ 29779
ck 29775
aches 29767
Out 29757
Atomic 29750
Nor 29747
releasing 29746
Please 29745
Serena 29743
pure 29737
break@@ 29730
conclude 29728
toys 29727
denying 29727
multinational 29717
din@@ 29708
tapes 29694
external 29693
pets 29689
Vajpayee 29687
convert 29686
exploration 29686
intensified 29686
Residents 29683
aut@@ 29682
ment@@ 29680
musicians 29666
partisan 29666
flexibility 29662
developers 29651
Ivanov 29651
obligation 29650
lacked 29640
organisations 29634
Lan@@ 29628
3.6 29627
tortured 29617
iti 29595
FI@@ 29592
Prague 29583
run@@ 29577
out-of-@@ 29563
Fischer 29559
law@@ 29549
trailing 29533
Kha@@ 29530
Key 29530
A.@@ 29522
Jeremy 29522
Mercedes 29520
organised 29515
investigator 29514
Regional 29513
shoppers 29512
apologized 29511
obstacles 29508
favorable 29507
failures 29506
Leonard 29499
Banks 29498
Rich 29497
hood 29495
past@@ 29492
violate 29491
Which 29489
excuse 29487
imprisoned 29486
HN 29483
listing 29480
fever 29479
lit@@ 29473
mild 29466
year-old 29465
postseason 29460
Emergency 29451
affecting 29449
racism 29441
-T@@ 29428
20-year-old 29427
Palin 29426
Biden 29425
sue 29419
travelling 29416
locker 29399
cam@@ 29396
Rol@@ 29394
bowling 29393
dignity 29392
Dell 29383
Montana 29382
1960 29381
patrols 29376
occasional 29371
Ryder 29371
secondary 29370
iro 29367
kins 29364
jacket 29362
unpopular 29354
shouting 29350
plunge 29336
bat@@ 29332
bus@@ 29329
embarrassing 29329
ram 29328
yields 29328
instant 29327
pitches 29324
identification 29314
aded 29313
sailors 29298
Bru@@ 29294
aired 29290
woes 29285
Bishop 29282
semi-@@ 29280
Sadr 29277
bipartisan 29277
1,6@@ 29274
19-year-old 29273
desperately 29272
ATLANTA 29269
calendar 29264
hinted 29261
reli@@ 29252
47@@ 29248
scare 29247
bott@@ 29224
CON@@ 29223
million-@@ 29217
Maz@@ 29214
raced 29204
fishermen 29204
Fel@@ 29192
lay@@ 29192
ni 29187
Guatemala 29176
Nation 29171
contrary 29168
warfare 29155
Gaz@@ 29154
romantic 29143
stabbed 29128
je@@ 29121
crying 29120
tom@@ 29120
laying 29117
confront 29113
Things 29110
sand@@ 29101
kel 29094
Long@@ 29089
tours 29083
Hart 29083
operational 29080
BMW 29077
Tre@@ 29075
Yas@@ 29070
ecting 29060
associates 29056
alike 29055
ven 29048
solely 29045
Mill@@ 29041
circulation 29029
pen 29015
jazz 29008
clinical 29001
cab@@ 28995
issuing 28982
Ashcroft 28981
Basra 28979
Marseille 28974
Fujimori 28973
Harrison 28972
undergo 28949
Reynolds 28949
Live 28948
Popular 28946
ual 28943
presentation 28939
delicate 28939
diving 28937
Nashville 28936
array 28925
provider 28902
bounced 28900
seeds 28895
Ball@@ 28894
unusually 28892
surrendered 28890
bol@@ 28889
1971 28885
ols 28884
Kate 28882
registration 28881
emotions 28878
Gray 28873
nurses 28869
al-Maliki 28864
tun@@ 28864
Eve 28862
ania 28861
refuses 28861
Base 28857
nar@@ 28855
day@@ 28849
reminded 28844
contributing 28841
surely 28841
tender 28839
band@@ 28835
it-@@ 28835
assembled 28835
heroes 28834
advancing 28829
understands 28824
rejection 28822
ITAR-Tass 28821
catching 28811
foot@@ 28809
expertise 28806
mates 28804
Sgt. 28800
picks 28799
etti 28795
oral 28795
mo 28794
significance 28784
legendary 28783
39.@@ 28783
sang 28772
headline 28758
define 28756
provoked 28750
ouster 28742
unspecified 28734
Israeli-Palestinian 28733
celebrities 28729
HI@@ 28724
ros 28722
Haw@@ 28717
spark 28713
theaters 28711
gli@@ 28707
wildlife 28700
magic 28686
underlying 28671
fingers 28668
Hungarian 28666
deserved 28665
4-2 28659
unilateral 28652
comic 28643
apartments 28639
Mes@@ 28632
Tsvangirai 28630
filling 28624
mob 28623
patience 28621
ny@@ 28618
3.4 28617
embassies 28615
rell 28596
Palmer 28593
Nairobi 28591
.3@@ 28587
rankings 28585
Coca-Cola 28579
Sky 28575
chronic 28563
rev@@ 28561
pharmaceutical 28560
Walsh 28558
cancelled 28557
wet 28556
completing 28556
adoption 28555
Broncos 28555
mus@@ 28549
Igor 28547
universal 28546
Gam@@ 28545
steal 28539
Death 28539
informal 28531
Boucher 28529
L.A. 28523
phrase 28523
upbeat 28521
autonomous 28515
shut@@ 28515
deported 28513
RBI 28510
Wu 28509
uncovered 28504
full-time 28502
APEC 28500
Does 28491
9th 28482
unfortunate 28476
functions 28470
6-7 28465
once-@@ 28442
Mont@@ 28441
Bos@@ 28434
employer 28433
install 28432
spinner 28427
manages 28423
alli@@ 28413
widow 28412
Som@@ 28409
plaintiffs 28409
deliveries 28401
ea 28393
nerve 28391
gallery 28390
Liberty 28386
Cav@@ 28386
majors 28386
Persian 28378
mid 28366
raped 28360
DI@@ 28360
Officer 28354
1-2 28354
tribe 28352
radiation 28347
op 28344
pot 28344
buyer 28343
colleges 28334
gal@@ 28332
boarding 28318
audio 28315
assure 28296
Cast@@ 28294
retained 28293
spectators 28290
Revenue 28287
borough 28282
Nets 28281
Hosni 28281
keys 28277
item 28274
peso 28272
cru@@ 28271
Corporation 28269
tel 28260
plan@@ 28260
History 28259
Bet@@ 28258
Christ 28256
Transport 28255
dam@@ 28247
Mic@@ 28247
tta 28245
Friends 28243
blockade 28241
ater 28241
disrupt 28240
web 28234
surveys 28231
Atletico 28225
York-based 28220
enn@@ 28215
shaking 28211
SE 28210
screaming 28206
transformed 28206
marine 28206
Davies 28205
Scientists 28203
pain@@ 28203
hard-line 28200
Jesse 28200
Raiders 28198
Vil@@ 28195
justified 28194
60@@ 28190
per-@@ 28184
Immigration 28178
retiring 28177
Tran@@ 28157
Yemeni 28145
arch@@ 28139
dirt 28136
Saint 28134
Ham 28132
Soon 28126
liquid 28119
Brady 28103
yev 28101
enhance 28100
cement 28098
productive 28095
teenagers 28091
Iranians 28091
convincing 28080
Comm@@ 28079
esh 28079
Industries 28076
titled 28072
Lat@@ 28072
ase 28068
rey 28055
grand@@ 28053
strengthened 28046
instability 28046
ester 28045
shootout 28043
Chuck 28040
Natural 28040
Pic@@ 28034
an-born 28030
capabilities 28029
0.7 28013
fro@@ 28013
hardest 28012
diverse 28012
runoff 28007
hea@@ 28001
decent 28000
Va. 28000
Panama 27994
Book 27987
Es@@ 27978
ented 27976
aspect 27975
Sav@@ 27971
Pav@@ 27969
Owen 27967
uniforms 27960
binding 27957
slumped 27944
condemn 27936
ety 27935
acquitted 27928
Darren 27928
tal 27926
Guy 27925
7:@@ 27924
insurgent 27922
gged 27921
Cra@@ 27920
sim@@ 27915
Hamburg 27915
staging 27912
intensity 27911
Khatami 27904
insurers 27897
acti@@ 27896
ori 27894
alised 27894
surviving 27893
wartime 27893
38.@@ 27890
ranch 27889
1962 27882
Scha@@ 27881
CS@@ 27868
turnaround 27863
lone 27857
laps 27856
ico 27855
rupees 27850
Emerging 27845
sheriff 27843
ensuring 27838
Week 27836
Should 27832
Finnish 27828
three-month 27826
presents 27819
ores 27816
meals 27809
mah@@ 27809
25-year-old 27804
one-year 27801
Spaniard 27798
1.5@@ 27797
decides 27795
clouds 27791
dictatorship 27785
patterns 27784
49.@@ 27783
alls 27781
Vit@@ 27772
Hag@@ 27770
matching 27768
reminder 27763
Din@@ 27754
Dol@@ 27752
isa 27742
advocacy 27736
Moreover 27734
approaches 27729
persistent 27728
payroll 27725
Taipei 27725
Mission 27724
helpful 27723
Dy@@ 27720
proceeds 27714
snap 27707
pledges 27701
AK@@ 27690
Raj@@ 27685
booked 27685
Yankee 27684
Never 27679
Za@@ 27672
conscious 27669
batsman 27665
bits 27662
orn 27659
copper 27652
differently 27645
ures 27634
executions 27628
contractor 27625
tipped 27624
Dale 27620
Reform 27618
speakers 27618
Hans 27616
ster@@ 27613
dissident 27613
dos 27611
bout 27604
forests 27600
ity-@@ 27598
Fallujah 27598
dividend 27559
PLC 27555
pray 27554
Sor@@ 27552
bridges 27551
teens 27541
farmer 27539
bargain 27533
subsequently 27531
dismissal 27528
God@@ 27528
Brett 27522
whenever 27520
Down 27520
physician 27516
contender 27512
r-@@ 27502
freezing 27498
spends 27495
Operation 27495
eding 27488
1964 27487
tolerance 27486
tanker 27485
sends 27482
nec@@ 27471
resisted 27470
graduated 27464
Ottawa 27459
upheld 27447
farming 27447
contracted 27444
fold 27443
Burton 27443
fts 27442
cemetery 27435
ze@@ 27430
inventory 27428
expires 27428
leak 27418
23-year-old 27413
podium 27413
undergoing 27412
loyalty 27412
ort 27412
sor@@ 27411
searches 27409
conclusions 27409
overthrow 27409
interrupted 27407
coordinated 27406
reversed 27404
Yushchenko 27404
Montgomery 27402
shame 27399
det@@ 27399
inj@@ 27388
wan@@ 27386
sid@@ 27383
ICC 27380
Station 27377
examining 27374
36@@ 27371
sign@@ 27370
relieved 27362
midst 27362
Between 27358
pay@@ 27355
Bronx 27354
ket@@ 27349
ric 27339
waved 27336
broadcasting 27326
casting 27324
skies 27318
ular 27317
Henderson 27304
sco@@ 27298
high-speed 27297
sing@@ 27295
hoo@@ 27287
70,000 27282
tap 27281
berger 27278
sidelined 27274
Be 27269
breath 27267
Lane 27254
receives 27252
Shiites 27246
Sergio 27244
richest 27243
memo 27243
Marcos 27238
shifting 27236
Felipe 27235
cy@@ 27235
ugly 27233
mortgages 27225
debates 27209
read@@ 27208
eable 27199
EHR 27198
Murdoch 27197
infections 27189
Lott 27188
Born 27186
supplier 27186
Barnes 27185
Bow@@ 27182
Amendment 27179
committing 27177
capability 27174
Penn 27168
trick 27168
foot-@@ 27166
cooperating 27162
Few 27156
designs 27150
cho@@ 27142
bonuses 27142
imprisonment 27137
grim 27134
Rahman 27133
LE 27129
upgrade 27127
spl@@ 27127
Sak@@ 27119
Lau@@ 27114
Boo@@ 27112
pled 27108
grams 27107
0.8 27106
Rem@@ 27105
KO@@ 27105
oh-@@ 27105
motive 27101
eo 27097
Zurich 27096
cross-border 27095
state-@@ 27093
oversees 27091
amendments 27090
revolutionary 27086
gene 27085
2.9 27079
ude 27078
49ers 27072
linebacker 27069
fund-raising 27068
ect 27067
blu@@ 27061
22-year-old 27054
first-half 27051
mers 27050
outlined 27047
TA 27043
CA 27041
Hingis 27041
Share 27038
PKK 27033
trades 27027
marry 27026
gues 27014
E-mail 27009
stamp 27009
Sid@@ 27001
portrait 27000
battery 26998
EX@@ 26998
heritage 26998
Kn@@ 26991
105 26981
Warsaw 26977
Angel@@ 26976
shoulders 26969
embraced 26963
Under@@ 26962
endangered 26961
addresses 26958
leather 26957
8:@@ 26957
coached 26952
deadliest 26950
34.@@ 26946
shire 26944
tured 26944
Marie 26943
gor@@ 26942
stat@@ 26936
Prodi 26933
offs 26932
Samsung 26923
ink@@ 26914
Rid@@ 26908
sin 26907
Trans@@ 26904
Italians 26896
judiciary 26894
confused 26891
vic 26882
wards 26880
strategies 26872
naturally 26865
competitor 26865
locals 26863
21-year-old 26848
10:@@ 26844
oria 26841
ook 26840
Derek 26840
separation 26831
integrated 26828
cheese 26828
Sum@@ 26826
Cab@@ 26823
towers 26817
Salvador 26814
Carroll 26808
lif@@ 26805
surgeon 26804
rounded 26802
tables 26792
Pro 26783
Rel@@ 26778
Mand@@ 26777
reads 26776
four-day 26770
designers 26770
toy 26760
editors 26758
tents 26746
vy 26746
unanimously 26741
Hon@@ 26740
sorts 26739
speci@@ 26734
hai 26728
Reno 26724
Mickelson 26723
anti-government 26716
genes 26710
uddin 26707
signaled 26706
Cy@@ 26703
Goo@@ 26700
nel 26700
Mills 26692
productivity 26684
pursued 26678
Over@@ 26667
Chamber 26667
contenders 26664
hardware 26661
slogans 26660
deserves 26656
portrayed 26653
amounted 26651
Ry@@ 26643
wholesale 26641
ratio 26629
treatments 26628
parallel 26624
coat 26623
possibilities 26617
ests 26613
populations 26610
militiamen 26607
Havana 26605
reaches 26597
pirates 26596
refinery 26595
restraint 26594
dispatched 26593
wisdom 26593
cycling 26592
Mladic 26590
Tou@@ 26584
disappearance 26582
Cubs 26578
3.1 26577
precisely 26568
consultations 26567
Majority 26565
ox@@ 26561
Players 26540
Franco 26540
deadlock 26538
Myers 26535
Cru@@ 26533
ples 26533
bias 26532
Thi@@ 26530
justices 26525
Rooney 26525
Cameroon 26523
anga 26523
Wen 26522
starters 26515
yers 26511
compiled 26510
Building 26504
submarine 26500
washed 26500
Gbagbo 26500
stays 26499
pipe 26492
pockets 26482
Zagreb 26475
flies 26473
emotion 26473
1949 26473
strom 26465
wondering 26460
shield 26454
Ramadan 26453
sten 26452
drops 26449
care@@ 26448
30-year 26446
-LCB- 26441
cook 26427
Od@@ 26425
Anti-@@ 26424
Continental 26418
80,000 26415
Amazon 26412
lower-@@ 26412
reopen 26409
wiped 26405
dic 26393
Ismail 26388
inspiration 26381
achieving 26377
expired 26371
shelters 26367
dressing 26366
mechanism 26354
Roosevelt 26341
medication 26337
hedge 26336
5th 26332
beside 26329
summoned 26328
et-@@ 26327
bacteria 26327
notified 26326
Comp@@ 26318
concentrated 26316
I. 26314
inaugural 26312
Get 26310
gers 26304
chat 26292
kidnappers 26292
probation 26291
Jefferson 26283
overseeing 26279
acquisitions 26273
Christ@@ 26271
zen 26265
outlawed 26261
indications 26258
Cardinal 26257
Curtis 26254
alter 26248
motor 26245
avoiding 26241
Ty@@ 26235
anne 26235
1947 26225
ransom 26223
deck 26221
betting 26217
trio 26210
bers 26207
wea@@ 26205
Dr@@ 26197
stal@@ 26193
faithful 26190
kicking 26188
ential 26187
Raz@@ 26185
rivers 26183
swap 26182
scra@@ 26180
ichi 26176
Stre@@ 26166
tainted 26153
landslide 26146
Davenport 26146
grain 26146
sluggish 26142
Village 26141
belongs 26140
confronted 26137
lung 26133
disastrous 26131
seekers 26124
Based 26123
3.7 26121
eyed 26119
bargaining 26114
circles 26113
sinking 26112
runner 26112
stiff 26111
ambulance 26110
Fiji 26110
rehabilitation 26109
as-@@ 26108
Baltic 26104
50th 26100
slot 26098
reservations 26093
consent 26090
UBS 26083
Mam@@ 26080
congress 26074
35@@ 26071
Adv@@ 26067
Santiago 26065
supermarket 26064
Riley 26063
App@@ 26062
travels 26053
pregnancy 26053
uncle 26048
ined 26044
trademark 26043
compelling 26039
judged 26036
incentive 26031
Amy 26028
ashes 26022
tered 26021
financially 26018
Moody 26014
outspoken 26013
astronauts 26010
precious 26009
opted 26002
Holland 26001
sustainable 26001
24-year-old 26000
Gl@@ 25995
bell 25995
cats 25995
Kenny 25993
hammer 25992
18-year-old 25991
segment 25988
stu@@ 25985
grandchildren 25984
Dame 25982
pil@@ 25981
trim 25979
Bethlehem 25976
Secret 25974
fr@@ 25974
Appeals 25973
Sus@@ 25967
Timothy 25962
EER 25958
ppers 25957
instruments 25955
115 25951
chancellor 25948
assisted 25947
Mercantile 25946
broadcaster 25938
sie 25935
securing 25929
Ellis 25924
top@@ 25923
flowing 25921
ja@@ 25911
45@@ 25909
Plat@@ 25908
secretly 25906
curfew 25905
Shimon 25905
crush 25904
Socialists 25887
strictly 25885
Bla@@ 25884
punch 25877
my@@ 25877
Nag@@ 25864
sparking 25858
jurisdiction 25855
clr 25854
inappropriate 25853
ead 25845
44@@ 25839
ation@@ 25832
uring 25825
draw@@ 25823
OH 25823
tracked 25815
let@@ 25800
naked 25797
exchanged 25792
slashed 25791
conservation 25789
orbit 25787
Britons 25785
1,5@@ 25782
banners 25777
woods 25774
Already 25772
Senegal 25767
sni@@ 25764
gies 25763
excitement 25762
Ricky 25761
ong-@@ 25761
EH@@ 25760
ump 25756
distribute 25750
Shaw 25737
gram 25736
Martha 25731
halfway 25727
8.5 25722
Vermont 25719
Ang@@ 25718
Lawyers 25702
garage 25699
Amman 25698
frontier 25694
Clemens 25693
artistic 25692
ji@@ 25692
heels 25689
Area 25686
Bible 25685
RA@@ 25685
Trading 25683
edly 25682
Winston 25678
35.@@ 25677
tightening 25674
C$ 25673
rider 25668
ERA 25668
rum@@ 25666
Shortly 25661
foster 25661
Schwarzenegger 25647
mysterious 25647
flash 25645
revol@@ 25626
leaked 25624
independently 25623
umb@@ 25617
constructive 25612
vegetables 25581
contaminated 25579
appoint 25575
cheered 25574
renew 25571
floating 25570
toughest 25568
eal@@ 25567
mourning 25563
Sheffield 25556
The@@ 25555
lightly 25552
Premiership 25550
discover 25549
Kel@@ 25549
Wade 25547
Balkan 25546
Fra@@ 25540
gn@@ 25534
wick 25534
ONLINE 25532
affiliated 25529
long-range 25523
Mass 25519
haul 25516
hatred 25515
58@@ 25513
London-based 25511
sum@@ 25509
nu@@ 25507
Law@@ 25502
hop@@ 25499
valley 25496
amateur 25493
directions 25489
remembers 25488
protective 25480
UR 25477
substantially 25471
recruited 25471
lett 25469
marred 25469
persuaded 25469
Sing@@ 25464
Roc@@ 25461
240 25460
Mosul 25459
intact 25453
Felix 25453
prohibited 25443
shaken 25441
stupid 25440
lease 25434
Representative 25434
Il 25432
Yale 25430
dipped 25429
historian 25421
Johannesburg 25406
nightmare 25405
weaken 25404
basement 25403
recount 25402
span 25399
UNHCR 25392
influenced 25386
sticks 25385
bea@@ 25385
bike 25384
would-be 25384
Fur@@ 25382
Rockets 25382
jungle 25377
fulfill 25376
CoxNet 25375
til@@ 25373
crises 25372
Northeast 25369
overhead 25367
dealings 25367
Moroccan 25366
examples 25362
Katrina 25362
Hope 25361
AHM 25361
bee 25359
Gregory 25357
Serie 25354
78@@ 25343
random 25341
Mogadishu 25339
reply 25337
lighting 25325
Nik@@ 25325
1948 25317
engaging 25311
hectares 25311
billionaire 25310
Spencer 25307
Joel 25306
breakdown 25305
Hashimoto 25299
trailed 25296
Asia-Pacific 25296
berth 25288
sible 25286
brick 25285
Lucas 25284
fundamentalist 25283
dock 25283
component 25282
republics 25281
21.@@ 25280
neighbours 25277
emen 25270
Medicaid 25264
ug@@ 25263
220 25258
Srebrenica 25254
ray 25253
statue 25253
Laz@@ 25250
kar 25250
bizarre 25249
innocence 25247
Lisbon 25240
Kingdom 25236
roc@@ 25233
slaying 25228
Josh 25224
Thanksgiving 25223
colored 25220
Yam@@ 25220
dismiss 25218
ESPN 25209
jersey 25207
brink 25201
accommodate 25198
sheets 25198
considerably 25195
Inside 25195
bathroom 25194
meantime 25185
careers 25183
oud 25174
Composite 25170
developer 25165
ty-@@ 25163
11:@@ 25160
Prices 25157
ann 25157
na@@ 25152
x-@@ 25143
prevention 25140
Kiev 25139
Gibson 25133
indicators 25133
Mir 25124
Manning 25123
Age 25121
Off@@ 25121
contentious 25117
Niger 25117
reopened 25116
ices 25115
itt 25115
Ruth 25115
garbage 25113
ally-@@ 25113
literary 25104
sovereign 25099
Janet 25094
Pel@@ 25093
completion 25093
ElBaradei 25084
conf@@ 25083
17-year-old 25080
overwhelmed 25076
Cho@@ 25073
Stra@@ 25073
sively 25071
billion-dollar 25065
Andrea 25056
arians 25054
101 25053
ghts 25048
V. 25048
same-sex 25047
implementing 25044
itor 25044
gran@@ 25042
37.@@ 25041
contends 25040
System 25039
stored 25037
Midwest 25036
Using 25032
trash 25029
inauguration 25027
flows 25025
plac@@ 25025
1965 25024
GR@@ 25019
with@@ 25016
ising 25010
convictions 25009
extr@@ 25006
Chil@@ 24984
blowing 24981
favourite 24981
Mobutu 24971
chocolate 24968
pas@@ 24964
scholars 24958
ems 24957
Tha@@ 24950
scrap 24946
ands 24938
syn@@ 24934
fielder 24934
much-@@ 24932
bag@@ 24910
Ja@@ 24910
Kyoto 24910
aire 24907
unnecessary 24898
wa@@ 24897
egg 24894
large-scale 24892
sprin@@ 24892
Independence 24890
Trinidad 24889
exceed 24887
goal@@ 24881
Ga. 24881
Chernomyrdin 24879
patent 24874
oxygen 24871
oil-rich 24871
Astros 24867
Looking 24863
Memphis 24861
Bear 24858
ventures 24858
Bernanke 24856
uck@@ 24855
gy@@ 24855
commodities 24854
Tol@@ 24847
chains 24838
ede 24836
Ste@@ 24836
fe 24831
Hockey 24830
self 24829
parole 24826
Congolese 24822
traffickers 24821
disrupted 24810
Heights 24805
Kobe 24805
Associates 24801
transmitted 24801
Sem@@ 24796
valid 24788
nell 24779
ager 24777
skill 24777
academy 24776
Julie 24770
Budget 24768
lacks 24764
vel 24763
Holmes 24763
BU@@ 24760
whis@@ 24756
shocking 24753
Quebec 24749
Iv@@ 24745
dig 24740
S_@@ 24740
198@@ 24739
tire 24733
sellers 24718
Oxford 24711
chers 24711
tune 24710
brow@@ 24704
Bird 24700
Outside 24697
Rea@@ 24686
plates 24686
Gerhard 24686
Chronicle 24684
fortunes 24672
tissue 24670
Tunisia 24668
rier 24667
totaled 24665
abe@@ 24659
conversion 24659
affects 24656
Fol@@ 24655
applause 24651
Southwest 24651
grateful 24642
Webb 24639
fla@@ 24637
ille 24636
restoration 24636
tha 24635
pricing 24632
eliminating 24625
Nuclear 24624
ern 24623
midfield 24618
sm 24615
aked 24611
Troy 24610
floors 24609
cen@@ 24608
countryside 24604
bull 24599
Wy@@ 24593
Di 24591
euro2 24590
disciplinary 24587
withdrawing 24587
Hend@@ 24587
lottery 24586
aw 24580
revival 24579
commercials 24578
Spe@@ 24577
tail 24574
ovich 24570
Far 24565
ga@@ 24564
Kab@@ 24562
Tribune 24556
languages 24554
ano@@ 24553
nia 24552
\ 24551
offenders 24549
Dakota 24540
employs 24536
altogether 24536
sometime 24535
4-3 24535
Kurdistan 24523
isc@@ 24521
shirts 24517
everyday 24516
minded 24514
Zam@@ 24502
Hand@@ 24501
condemnation 24497
J.@@ 24494
limiting 24492
pec@@ 24492
mur@@ 24492
benefited 24490
Ma 24490
jokes 24489
Medicine 24482
awful 24481
pullout 24480
ancy 24477
furious 24473
diesel 24458
depressed 24457
Sheriff 24455
Philippe 24455
1963 24449
Holbrooke 24448
cut@@ 24443
HP 24442
Gerald 24440
performers 24432
Hin@@ 24423
rever@@ 24413
leaning 24411
viable 24411
commodity 24411
disturbing 24410
ball@@ 24406
800-@@ 24404
mont 24398
bou@@ 24396
corporation 24394
Las@@ 24392
sla@@ 24385
briefed 24384
representation 24382
thro@@ 24374
ullah 24371
Summer 24368
diabetes 24360
ffer 24359
throat 24355
audit 24350
succession 24346
swift 24341
experiments 24341
bribes 24339
ingham 24338
youngsters 24336
machinery 24335
arrives 24332
Captain 24329
weighing 24325
ima 24323
Rosen@@ 24323
settling 24322
Nathan 24322
dam 24322
weakening 24321
default 24320
Petro@@ 24317
Lance 24313
martial 24312
confidential 24311
accessible 24309
ANC 24309
Resources 24308
spur 24305
hurting 24304
slim 24299
und@@ 24298
refer 24296
CN@@ 24294
premature 24290
LA 24287
posters 24281
Colombo 24273
dou@@ 24272
Luc@@ 24272
suspicions 24269
Tru@@ 24266
pitchers 24264
ethical 24263
ae 24261
confined 24258
harvest 24257
lam 24255
gar 24254
Andersen 24254
Wide 24249
26-year-old 24234
surfaced 24228
Sc@@ 24210
erman 24207
liability 24205
Hussain 24201
rebounded 24200
defeating 24200
ading 24198
Carlo 24198
beaches 24197
studios 24196
Peterson 24195
oul@@ 24193
Uribe 24192
270 24188
transitional 24183
Adrian 24183
f-@@ 24180
sore 24173
detonated 24170
socialist 24168
DVD 24166
frustrating 24161
conc@@ 24158
36.@@ 24158
counter-@@ 24151
laundering 24150
Klein 24145
Father 24139
intimidation 24138
update 24136
tail@@ 24135
nominations 24135
shaky 24133
Rab@@ 24132
bishop 24130
calculated 24128
6-year-old 24128
val 24127
ult 24116
Colonel 24111
organ 24105
comparable 24094
drunk 24090
Fiat 24090
akes 24088
pepper 24080
tem@@ 24076
Lag@@ 24075
artificial 24075
mountainous 24073
inadequate 24072
U.N.-@@ 24071
lover 24068
gases 24067
entity 24067
norm@@ 24065
embattled 24059
predicting 24059
aine 24056
lately 24054
Basketball 24051
beliefs 24048
4.2 24040
regi@@ 24035
congressman 24033
Jon@@ 24031
chy 24028
ress 24027
Naz@@ 24026
cellular 24019
1966 24014
tide 24013
enting 24012
tends 24005
tasks 24004
communicate 23997
enjoys 23992
vin@@ 23992
restoring 23992
misconduct 23989
tual 23986
Abe 23983
prone 23980
medalist 23970
venues 23969
ua 23964
million-dollar 23964
Review 23963
courthouse 23958
dresses 23957
6:@@ 23950
Mumbai 23948
NATO-led 23946
shipment 23944
Water@@ 23939
sked 23935
slated 23925
Tennis 23923
prop 23916
Baptist 23912
wrist 23908
Harvey 23901
stricken 23897
labels 23895
S.@@ 23895
HR 23892
propose 23891
Nav@@ 23889
branded 23888
pes 23888
Place 23887
obstacle 23885
12:@@ 23882
flexible 23871
EPA 23863
Lang@@ 23862
Chilean 23861
sig@@ 23857
Rockies 23854
existed 23853
clinched 23852
Athletic 23847
dining 23845
Heat 23845
urgency 23842
exp@@ 23840
jewelry 23839
indefinitely 23837
petroleum 23836
loses 23834
tore 23834
accountable 23823
pan 23818
tapped 23811
cracked 23801
Certainly 23798
capit@@ 23798
divorced 23796
interpretation 23792
spying 23789
sake 23785
moratorium 23781
gol@@ 23779
ign@@ 23778
gru@@ 23774
Becker 23769
Rugby 23764
wondered 23759
evacuate 23757
Ricardo 23756
tribes 23756
Side 23756
kah@@ 23752
new@@ 23750
oured 23750
ambassadors 23743
AU@@ 23736
rescuers 23731
ables 23730
Aid 23727
Graf 23725
Opera 23720
privatization 23718
toss 23718
aren@@ 23717
itated 23716
backers 23714
hijackers 23710
third-quarter 23709
Ran@@ 23704
Fair@@ 23701
McVeigh 23701
displays 23692
gon 23690
Gul 23690
Statistics 23689
600,000 23688
owski 23688
Jab@@ 23684
naming 23683
68@@ 23678
sect 23676
tures 23672
pass@@ 23668
Leg@@ 23667
Lab@@ 23665
Filipino 23661
D'@@ 23660
Oc@@ 23655
Change 23654
prolonged 23646
Honduras 23643
X-@@ 23641
add@@ 23636
decrease 23631
Rat@@ 23630
Player 23630
Crawford 23628
35,000 23626
tian 23622
joked 23618
worrying 23618
licensed 23610
owing 23608
Banking 23603
Rica 23599
description 23598
hun@@ 23594
Wo@@ 23591
thanked 23589
ok 23589
Fleischer 23584
uncomfortable 23579
hair@@ 23578
themes 23572
thy 23569
universe 23568
+@@ 23566
graphic 23563
Homeland 23559
27-year-old 23555
lingering 23554
rel 23547
Bour@@ 23543
FAA 23540
respondents 23536
semi-final 23535
Bashir 23530
laughing 23523
Woo@@ 23520
Hasan 23511
Peninsula 23509
lec@@ 23506
Trophy 23503
liner 23502
Cop@@ 23502
Thus 23500
satellites 23497
Traders 23492
dynamic 23488
103 23487
alia 23480
delegate 23477
Je@@ 23473
long-distance 23454
greens 23454
OSCE 23447
topics 23446
Fab@@ 23444
Twenty-@@ 23444
visual 23437
Would 23436
interrogation 23435
monks 23432
intr@@ 23428
Luke 23427
makeshift 23426
primaries 23424
mansion 23420
ald 23416
motorcycle 23414
Ga@@ 23412
Drew 23404
database 23401
PC@@ 23401
skiing 23401
Morning 23394
Was 23392
mature 23390
negotiation 23387
offenses 23384
cont@@ 23384
mobil@@ 23382
Renault 23381
Syndicate 23373
aria 23372
Sayyaf 23370
Tracy 23369
akh@@ 23365
Var@@ 23364
chanting 23362
listened 23359
plight 23358
Datafile 23353
versus 23345
affordable 23343
solved 23340
uti@@ 23339
stre@@ 23336
shop@@ 23334
invite 23329
alo@@ 23326
cop@@ 23321
Professor 23321
Abraham 23318
Stocks 23318
eller 23316
Grace 23308
modified 23307
AHK 23302
.5 23299
IRS 23297
Gibbs 23292
Rac@@ 23291
Being 23290
230 23281
Yitzhak 23281
liquidity 23280
resolving 23278
generating 23276
lure 23270
campaigned 23269
Gadhafi 23265
exceptional 23256
Countries 23254
afterwards 23250
45-@@ 23247
Madeleine 23246
eel 23245
updated 23245
remainder 23244
horrible 23239
slaughter 23235
nominees 23229
filmed 23228
7th 23226
loads 23225
coordinate 23224
1,3@@ 23222
detect 23209
Newt 23206
warrants 23204
indigenous 23204
protein 23203
28-year-old 23200
bit@@ 23197
coordination 23195
weigh 23194
revealing 23193
WTA 23191
supervision 23189
vis 23189
5:@@ 23188
checkpoints 23186
clues 23184
Blackburn 23183
thin@@ 23182
fan@@ 23181
arsenal 23173
tops 23166
IL@@ 23161
Communists 23161
fi 23161
voluntarily 23159
Boy 23158
adventure 23154
exceeded 23150
cotton 23149
relation 23148
Meh@@ 23146
ingredients 23144
sustain 23142
Money 23141
dissent 23140
bite 23137
1930s 23131
escalating 23130
oo-@@ 23130
acute 23129
liver 23123
9:@@ 23120
Rudolph 23116
Ossetia 23115
puck 23115
railroad 23113
favorites 23112
Haz@@ 23110
Pan 23109
Ashley 23107
under-@@ 23094
12,@@ 23092
Order 23091
upward 23091
shifts 23090
mount 23087
Main@@ 23084
Bulgarian 23083
deportation 23082
Abdul@@ 23077
Jay@@ 23071
compare 23069
Helen 23068
indoor 23062
alternatives 23060
clinics 23060
ignoring 23058
ind@@ 23055
Mason 23053
Refugees 23049
swine 23048
endured 23044
proving 23043
implicated 23042
bal 23039
Canadians 23039
Companies 23033
Fair 23031
identical 23030
Sai@@ 23029
erson 23023
burial 23021
rig 23018
1,7@@ 23015
hand-@@ 23015
fic@@ 23010
Riyadh 23009
ambush 23008
Belfast 23008
bosses 23006
int 23005
motor@@ 23003
Blacks 23001
ling@@ 23001
unsuccessful 23000
meaningful 22995
SW@@ 22994
McG@@ 22989
Temple 22986
ware 22976
Walt 22965
topple 22964
anch@@ 22959
0.9 22959
bowled 22957
earliest 22956
blaming 22953
loving 22947
handover 22946
Plan@@ 22946
-M@@ 22938
Sl@@ 22931
LTTE 22930
irregularities 22923
Kuwaiti 22923
pleasure 22922
gunned 22921
Lima 22919
proportion 22917
objected 22915
superior 22913
Julia 22912
Century 22904
Coleman 22901
GP 22900
self-rule 22897
compensate 22897
48@@ 22897
ario 22893
juice 22887
135 22876
I-@@ 22875
lier 22872
Pla@@ 22871
respects 22868
wings 22855
apologize 22853
Wenger 22852
litigation 22847
isation 22838
hampered 22837
Saleh 22828
finalist 22826
Electronics 22825
smell 22822
4.3 22822
48.@@ 22820
criticizing 22819
shor@@ 22819
embarrassed 22817
spirits 22816
economically 22812
chased 22810
190 22810
facto 22807
commonly 22806
confiscated 22805
adjust 22804
Klaus 22803
evaluate 22801
retro@@ 22798
Albany 22794
Kun@@ 22794
mixture 22790
BAH 22788
cheering 22786
ministries 22785
Alfred 22781
highlights 22780
Hey 22779
Greenpeace 22777
Willie 22771
lesser 22767
iller 22763
ried 22758
Nov@@ 22755
Youth 22748
hat@@ 22746
verge 22745
structural 22744
unaware 22737
Arm@@ 22736
Have 22735
accompanying 22730
20s 22725
Andrews 22725
rivalry 22725
True 22723
restrict 22716
Too 22715
South@@ 22712
Turks 22711
credentials 22711
Floyd 22706
satisfy 22703
fourth-quarter 22701
Lower 22697
Potter 22695
medicines 22691
flawed 22690
Catherine 22687
Amir 22686
laden 22684
Andrei 22683
Carol 22682
rode 22681
xfdws 22680
gie 22676
legitimacy 22673
trace 22668
Matt@@ 22661
CP@@ 22659
downward 22659
Golan 22658
Fleming 22650
dioxide 22645
Che@@ 22641
Deb@@ 22641
airspace 22637
Himalayan 22634
Small 22633
Pil@@ 22630
classroom 22624
USS 22622
inability 22620
Oval 22612
seller 22612
faculty 22611
mini-@@ 22604
4.4 22600
disasters 22593
prompt 22582
miracle 22576
ind 22575
loo@@ 22573
Torres 22571
Boys 22568
slash 22565
Bag@@ 22564
Gloria 22562
enthusiastic 22560
record-@@ 22559
hijacked 22557
outfit 22553
Class 22552
dominance 22550
journalism 22550
dru@@ 22547
Silvio 22547
Peruvian 22547
Vas@@ 22543
Hopefully 22538
Easter 22538
beloved 22535
evolution 22535
mig@@ 22534
disc@@ 22532
ruler 22528
Dub@@ 22525
marketplace 22522
30-year-old 22521
000-@@ 22518
Anti@@ 22513
butter 22512
ministerial 22508
Manager 22506
elimination 22504
evi@@ 22504
Corp 22492
American-@@ 22490
29-@@ 22487
combine 22486
absent 22485
AW@@ 22485
HSBC 22484
makeup 22480
swiftly 22480
tighten 22480
math 22471
Bihac 22469
46@@ 22464
fra@@ 22462
endorse 22460
fo 22452
End 22451
alle@@ 22449
tti 22449
Iceland 22448
embarrassment 22445
CL@@ 22441
Torre 22440
elbow 22440
glory 22432
interpreted 22432
Ten@@ 22430
Rescue 22428
cha 22426
Amid 22418
gym 22417
shaw 22416
port@@ 22416
Child 22411
Hanoi 22410
kidney 22405
oph@@ 22404
Hull 22403
ridiculous 22400
recruit 22396
panels 22395
sprint 22394
Pul@@ 22393
Direc@@ 22392
Parma 22391
unofficial 22389
CC 22388
kidnappings 22386
Hus@@ 22386
enterprise 22385
ulation 22384
appreciation 22381
http://@@ 22381
CO 22379
P.@@ 22374
remind 22374
NL 22371
habit 22363
LPGA 22363
habits 22362
offerings 22361
Ron@@ 22356
Acc@@ 22354
guilt 22351
Good@@ 22349
midway 22349
whereabouts 22349
yar@@ 22349
mediation 22344
e-mails 22342
ag 22342
Wat@@ 22341
Lim@@ 22340
enacted 22336
je 22332
Weather 22332
Ferr@@ 22330
unc@@ 22327
Els 22327
transparency 22318
Fon@@ 22315
bled 22309
TER@@ 22308
technological 22308
OM@@ 22307
Hyundai 22306
incomes 22305
Pinochet 22304
1,4@@ 22302
identifying 22301
Mahdi 22301
Currently 22299
Rub@@ 22298
STRAITS 22293
stabilize 22291
looting 22288
Jong 22288
Reports 22277
sian 22275
repairs 22271
Paraguay 22266
oma 22263
Had@@ 22262
Private 22260
knees 22259
bounce 22257
labeled 22257
seizure 22257
Big@@ 22255
16-year-old 22254
pensions 22253
likelihood 22252
Jas@@ 22250
Straw 22249
short@@ 22246
baum 22245
radi@@ 22244
fal@@ 22243
Malone 22243
bleeding 22239
ruins 22238
permanently 22235
newest 22235
tea@@ 22235
46.@@ 22228
button 22227
h-L@@ 22217
protocol 22213
Reporter 22212
Nak@@ 22208
550 22205
Sport 22205
3,500 22204
broadcasts 22204
icy 22203
og@@ 22203
dom@@ 22193
Clippers 22190
berry 22188
mark@@ 22186
scr@@ 22185
verify 22185
Richards 22182
projections 22180
rampant 22176
Webber 22175
Am 22173
drill 22159
piracy 22156
asserted 22148
unanimous 22148
tional 22147
dug 22146
dy@@ 22143
exiled 22139
Py@@ 22137
detective 22136
Gas 22133
1,300 22131
McCarthy 22130
.J. 22128
iss@@ 22124
Clearly 22121
DA 22120
Brun@@ 22120
intercepted 22114
Notre 22114
conglomerate 22111
Aires 22109
iles 22108
Aw@@ 22101
introducing 22101
bent 22098
burns 22096
vet@@ 22094
admitting 22092
32-@@ 22091
drug-@@ 22090
Cubans 22090
meg@@ 22087
unexpectedly 22087
aj 22083
kil@@ 22080
Alonso 22079
highways 22079
gallons 22077
Trent 22075
excluded 22075
kh 22074
questionable 22074
incredibly 22074
incoming 22065
weekends 22065
graves 22058
defenses 22054
menu 22047
Hir@@ 22045
piled 22042
Caucasus 22039
relied 22038
4.6 22038
ambi@@ 22033
3.9 22025
ises 22024
minimal 22019
passports 22016
prosecute 22016
reck@@ 22012
len@@ 22012
Pad@@ 22011
war-@@ 22010
catastrophe 22009
steam 22008
carpet 22007
Volkswagen 22007
eni@@ 22004
umpire 22002
beds 22000
mas 21998
observer 21996
instructed 21993
hamstring 21991
Ful@@ 21989
175 21988
Hilton 21982
marriages 21981
hurdles 21980
direc@@ 21979
technically 21976
Buenos 21975
restart 21973
legislator 21964
arrange 21963
simultaneously 21963
vi 21961
inci@@ 21959
mee 21957
granting 21956
Records 21955
assassinated 21955
itan 21952
honors 21951
CE@@ 21949
By@@ 21948
ounces 21947
profound 21943
descent 21939
Queensland 21937
Whitman 21936
visitor 21931
Disease 21927
backdrop 21925
Pristina 21925
disagree 21923
Mahmud 21921
Tab@@ 21921
transplant 21918
exhausted 21916
Pass@@ 21914
alleging 21913
Bruno 21913
Auto 21911
af 21910
recipients 21905
nonetheless 21903
polled 21903
Cul@@ 21898
patch 21897
ashed 21897
subjected 21895
consulate 21895
administered 21894
Gan@@ 21887
bla@@ 21884
foes 21883
architecture 21882
Coun@@ 21877
banker 21875
twist 21872
13,@@ 21871
Fay@@ 21868
Blan@@ 21866
4.8 21862
aled 21858
Ridge 21856
ool 21852
functioning 21848
jeans 21845
tended 21844
Mass@@ 21839
Further 21836
practically 21836
scal@@ 21835
45.@@ 21835
assailants 21834
Hea@@ 21832
Ann@@ 21831
app 21831
inn@@ 21818
directing 21818
sup@@ 21817
shorter 21813
prosecuted 21811
Rod 21807
transparent 21804
exclusively 21802
rulers 21802
allegation 21801
critically 21800
may@@ 21798
kronor 21798
Hab@@ 21796
nan 21796
grows 21793
1959 21792
wo@@ 21787
quarterfinal 21787
SS 21784
Heavy 21783
masks 21783
Fighting 21775
Construction 21775
survivor 21774
museums 21760
borne 21758
inform 21755
Moon 21754
Left 21749
fares 21748
5-0 21742
lem@@ 21742
lean 21740
printing 21740
rolls 21737
satisfaction 21731
rant 21731
avert 21730
behaviour 21727
6-foot-@@ 21726
attraction 21725
Throughout 21725
historically 21725
2-3 21724
Gab@@ 21722
escalation 21721
iPhone 21715
photographers 21712
respective 21710
viewing 21709
Car 21695
grief 21691
rest@@ 21691
barracks 21689
folk 21686
vit@@ 21683
commissioned 21677
famed 21677
contests 21674
ains 21674
back-to-back 21670
cake 21667
pel 21659
Ou@@ 21657
servants 21653
Greene 21652
Rivera 21648
boots 21646
But@@ 21645
6th 21643
corners 21641
cabin 21638
ater@@ 21633
Estrada 21629
Way 21626
statewide 21626
EC 21625
shelves 21624
Tat@@ 21622
mol@@ 21621
rejecting 21621
aly@@ 21620
planting 21619
grocery 21618
Storm 21608
decorated 21604
Coke 21603
fast-@@ 21602
Straits 21602
fa 21600
compact 21597
provisional 21594
reigning 21593
Lou 21592
shutdown 21592
Malcolm 21587
shoe 21586
Sure 21586
dump 21585
aud@@ 21583
advantages 21580
felony 21577
McLaren 21577
crunch 21575
dering 21575
revolt 21566
six-year 21566
commented 21564
bankrupt 21561
Gandhi 21556
rists 21554
assuming 21552
Fish 21551
autumn 21545
looming 21543
4.7 21536
ank 21530
Net@@ 21525
insufficient 21525
responses 21524
Joan 21519
mail@@ 21518
Hat@@ 21518
classical 21512
rhythm 21510
Highway 21508
Low@@ 21504
Malik 21504
Elena 21503
Daschle 21493
presenting 21492
governance 21490
210 21489
tightened 21489
Saakashvili 21487
Run@@ 21485
aming 21483
census 21483
dl@@ 21481
Doha 21480
wrap 21476
glasses 21475
fantasy 21473
mediator 21471
Gabriel 21471
initiated 21465
catcher 21464
&@@ 21458
torch 21452
Hur@@ 21446
lacking 21444
Mess@@ 21444
etta 21441
Soldiers 21439
S&P 21437
disposal 21434
Kostunica 21433
ital 21428
vague 21427
Springs 21425
Nablus 21420
vent 21418
detectives 21415
Eventually 21414
Saints 21411
peers 21408
47.@@ 21404
forged 21400
gic 21393
lowering 21388
Fro@@ 21387
omed 21385
Judiciary 21384
loser 21383
brush 21380
umbrella 21375
undisclosed 21375
ria 21372
rental 21369
defenseman 21367
fur 21365
Koreas 21365
anti-terrorism 21362
Wild 21360
second-round 21358
black@@ 21357
monument 21352
rotation 21350
8:30 21344
Aznar 21343
anchor 21342
800,000 21341
Oracle 21338
mill 21337
diamond 21337
Sul@@ 21333
administrators 21330
cafe 21328
revelations 21327
Stat@@ 21324
Ye@@ 21323
Commons 21321
escu 21319
tossed 21318
swim 21317
dra 21317
skilled 21313
Plc 21310
Conservatives 21303
infant 21300
Mourinho 21298
pick@@ 21297
investigative 21295
first-quarter 21294
@@@ 21291
traditions 21287
hook 21286
accelerate 21283
Mavericks 21279
believing 21278
non 21271
Gomez 21269
metric 21268
expulsion 21263
Southampton 21263
Dal@@ 21260
san@@ 21255
Christine 21255
Hopkins 21255
Partners 21252
borrow 21250
inform@@ 21247
white-@@ 21246
sheer 21244
sheep 21244
Stuttgart 21242
blood@@ 21242
fallout 21241
mirror 21233
tory 21233
Up@@ 21233
kicks 21232
tting 21224
YouTube 21224
Vin@@ 21223
Prosecutor 21223
turf 21221
trailer 21220
650 21216
fifth-@@ 21212
gi 21212
Valentine 21211
volumes 21209
Campaign 21203
supportive 21198
animated 21198
enterprises 21198
dj@@ 21190
ts@@ 21185
lip 21185
formidable 21185
Nation@@ 21177
MTV 21171
rah 21171
Oli@@ 21170
expectation 21167
surging 21167
oli 21167
homeowners 21162
1,9@@ 21160
sympathetic 21158
fitting 21154
merchandise 21153
N.C. 21153
homered 21145
Pelosi 21141
wil@@ 21141
Americas 21141
Bin@@ 21140
gauge 21137
downed 21134
Jazz 21122
O'Connor 21117
guitar 21116
al-Sadr 21113
pastor 21108
Leicester 21108
Lub@@ 21107
gener@@ 21100
fixing 21098
ERS 21097
communism 21097
Russian-@@ 21092
Rays 21090
videotape 21087
Roland 21086
Moving 21080
fireworks 21079
ratified 21078
izing 21076
Falcons 21075
von 21073
Lukashenko 21071
Jenkins 21069
touring 21066
15-year-old 21064
cent@@ 21061
Kuchma 21055
Prevention 21054
unconstitutional 21053
Ontario 21049
FD@@ 21045
uma 21042
Shin@@ 21041
Dai@@ 21041
impasse 21040
5-1 21039
icked 21038
consolidation 21038
tabloid 21033
Economists 21032
bother 21020
darkness 21016
Well@@ 21014
Welsh 21012
Bordeaux 21008
dian 21002
Mexicans 21001
Cow@@ 21000
Leaders 20998
publishers 20994
power-sharing 20994
Dre@@ 20989
drowned 20988
suitable 20984
left-wing 20984
debated 20975
Gazprom 20973
govern 20968
fits 20967
33-@@ 20967
7-year-old 20965
Wolf 20963
Border 20963
twins 20963
episodes 20957
manual 20954
Kr@@ 20948
duo 20945
iser 20942
bare 20942
keepers 20941
excluding 20938
averaging 20937
poly@@ 20936
person@@ 20935
backlash 20934
tightly 20928
Dhaka 20927
void 20927
pile 20923
ll 20923
crushing 20923
proliferation 20922
31-@@ 20921
tation 20916
Delaware 20911
Care 20910
Obasanjo 20909
Patricia 20908
outing 20907
Nick@@ 20907
ust 20905
netted 20904
fugitive 20901
Parcells 20901
Lara 20896
shrinking 20895
revived 20887
applying 20887
defiance 20887
long-standing 20883
HBO 20883
Pictures 20878
lau@@ 20872
cure 20870
wreck 20869
GH@@ 20864
cried 20864
uba 20862
tam@@ 20861
Agreement 20859
guarding 20858
Harbor 20857
wid@@ 20857
rap 20857
Dmitry 20856
aver@@ 20854
Zo@@ 20854
angle 20853
Loc@@ 20851
interfere 20851
Sad@@ 20847
tentative 20847
Ayatollah 20847
touching 20846
centr@@ 20844
hyper@@ 20843
Defending 20842
And@@ 20842
Junior 20842
characterized 20840
casualty 20840
brave 20838
Sciences 20837
Islanders 20835
terrain 20832
advertisements 20832
hostilities 20828
Library 20825
Tun@@ 20825
holed 20823
Unless 20822
shi 20821
injection 20815
mal 20812
Arctic 20812
Les@@ 20811
complications 20806
pressured 20803
Kirk 20801
concerts 20800
Hou@@ 20800
kah-@@ 20793
dean 20792
cav@@ 20791
aching 20791
Idaho 20789
squeeze 20787
disappear 20782
PRI 20781
atives 20777
hr@@ 20777
conferences 20776
alisation 20765
joins 20764
200-@@ 20760
predictions 20759
Phil@@ 20758
Patterson 20755
:00 20754
dil@@ 20753
kovic 20749
Deng 20746
affiliate 20745
motivation 20745
precedent 20743
Berkeley 20743
Environment 20737
BEGIN 20735
installations 20731
worlds 20729
achievements 20729
Together 20725
Rashid 20724
scoreless 20721
rotating 20720
Saeed 20718
Orioles 20716
cruel 20711
ques 20710
romance 20708
adjacent 20708
notable 20705
subcommittee 20703
Marlins 20702
losers 20697
Recent 20695
determining 20694
East@@ 20694
Newark 20694
colorful 20693
NI 20692
Blu@@ 20686
Top@@ 20684
Panthers 20683
dumping 20675
abduction 20675
Dealers 20672
Tem@@ 20671
supervisor 20670
gos 20669
maj@@ 20668
King@@ 20667
spate 20664
Students 20663
eagle 20663
attacker 20660
Richmond 20658
wat@@ 20658
inhabitants 20657
blessing 20656
rein 20654
glimpse 20650
observation 20650
Shawn 20641
chang@@ 20641
doc@@ 20639
bubble 20633
Plus 20633
mediate 20628
chef 20627
Fla@@ 20625
Alain 20623
effectiveness 20620
dness 20619
flower 20619
5.6 20616
1,8@@ 20615
bribery 20614
overshadowed 20611
Harold 20610
ams 20610
blin@@ 20610
kee 20609
graphics 20603
ays 20601
bore 20598
semi-finals 20596
seas 20595
quar@@ 20593
purely 20590
continental 20588
escorted 20586
clause 20585
relating 20584
Zone 20583
ection 20576
superb 20574
destinations 20572
nationalists 20571
identities 20564
traces 20562
horn 20561
populous 20556
most-@@ 20555
Aston 20549
fraction 20549
chil@@ 20548
Hart@@ 20546
Bud@@ 20538
Deportivo 20536
fried 20533
ont 20526
ever-@@ 20519
rough@@ 20518
bad@@ 20514
Sandy 20513
showers 20510
Wagner 20506
tion-@@ 20505
nur@@ 20503
pills 20502
freedoms 20500
AHD 20500
time-@@ 20497
contents 20496
Sei@@ 20494
quotes 20492
electorate 20490
regained 20490
agan 20486
mm 20486
sliding 20482
high-ranking 20480
Wildlife 20480
lieutenant 20477
ushing 20475
toe 20466
Calderon 20466
instantly 20459
Ya@@ 20447
Jessica 20444
kar@@ 20441
mah-@@ 20438
Tests 20430
espionage 20430
clad 20429
overcame 20422
Dortmund 20421
monarchy 20420
poet 20419
cad@@ 20417
Baby 20417
Rams 20414
Rou@@ 20413
Separately 20410
Soccer 20407
suffers 20406
fle@@ 20402
transform 20401
nier 20401
radioactive 20400
CDC 20399
terr@@ 20390
Fil@@ 20387
Legal 20386
sit@@ 20385
second-half 20382
icks 20381
oath 20380
Hunt 20377
sec 20377
aqu@@ 20375
1961 20374
transformation 20370
forehand 20366
Sat@@ 20360
thoroughly 20359
edo 20357
Song 20356
attracting 20354
Pak@@ 20350
z-@@ 20350
Jackie 20345
H-@@ 20345
rioting 20345
organisers 20344
Anyone 20343
102 20341
see-@@ 20339
Bundesliga 20338
prospective 20337
manufactured 20333
waged 20329
abilities 20329
memorable 20328
hybrid 20328
Rav@@ 20327
104 20327
pit@@ 20323
hid 20322
conflicting 20322
Cr@@ 20321
som 20320
mond 20320
blog 20319
JO@@ 20317
insistence 20317
tia 20316
acid 20315
extremism 20308
olo 20300
unt 20300
Djokovic 20296
cooperative 20292
civic 20282
denial 20282
90@@ 20282
renowned 20277
piano 20277
schemes 20277
ay-@@ 20275
kills 20274
styles 20274
arbitration 20270
tolerate 20268
kuh-@@ 20267
ility 20265
contended 20263
Duma 20259
workplace 20257
Telegraph 20247
5-4 20246
costing 20244
quotas 20244
29-year-old 20241
attitudes 20240
super 20240
mechanical 20239
Barclays 20238
scary 20237
tened 20236
Gh@@ 20236
syndrome 20235
instrument 20229
lend 20225
neuro@@ 20223
assing 20223
austerity 20221
Customs 20219
Eritrea 20218
maritime 20217
grouping 20215
s.@@ 20215
Tw@@ 20214
postpone 20213
Nichols 20212
fathers 20206
run-up 20206
Khaled 20204
gle 20202
relying 20201
tactic 20200
Israeli-@@ 20198
Ast@@ 20197
Conn. 20194
reflection 20191
catches 20189
Elvis 20188
deliberate 20187
Horn 20185
deri@@ 20182
lightning 20179
thorough 20178
spectrum 20177
narcotics 20175
leap 20173
AU 20173
laughed 20171
plummeted 20171
columns 20169
Web@@ 20169
AA 20167
sport@@ 20161
trusted 20159
collaboration 20158
2015 20156
Oman 20155
dismantle 20154
boro 20153
governmental 20152
endless 20140
00-@@ 20137
Superior 20134
medi@@ 20131
dual 20131
Eduardo 20127
plutonium 20127
Researchers 20126
boarded 20126
wears 20125
unified 20121
Minneapolis 20117
underscored 20115
nuts 20109
reconsider 20106
ID 20098
postwar 20096
Glasgow 20093
Sig@@ 20092
altitude 20089
Buck@@ 20088
OO 20083
stuffed 20080
eff@@ 20079
fronts 20075
yp@@ 20075
Supporters 20074
now-@@ 20074
evaluation 20073
rented 20072
sailing 20071
nod 20060
organic 20058
harbor 20055
clerics 20051
layer 20047
ght 20047
subtle 20044
certified 20042
batteries 20039
dancers 20038
prepares 20033
RBIs 20033
premiere 20030
tery 20030
Beverly 20021
Ajax 20018
ination 20017
Pablo 20014
Plan 20011
Armenia 20011
ister 20008
three-time 20003
1,600 20002
grounded 19999
authoritarian 19992
Anton@@ 19989
Suzuki 19989
compatriot 19987
stemming 19984
Hours 19982
Meyer 19978
path@@ 19976
counseling 19973
graduates 19969
dire 19964
hint 19959
Gall@@ 19959
Less 19956
Najaf 19948
Elliott 19948
tube 19947
Vicente 19947
collections 19944
reactions 19942
lashed 19941
Cla@@ 19941
logical 19939
composed 19938
kha@@ 19937
Bai@@ 19931
olive 19930
seated 19929
poc@@ 19926
Centers 19925
Rum@@ 19924
scre@@ 19924
T-shirts 19924
elly 19921
assignment 19920
filming 19912
reign 19910
zee 19909
outraged 19908
observe 19908
beans 19908
chemistry 19906
freestyle 19906
Tai@@ 19904
Kyrgyzstan 19904
signatures 19900
sauce 19899
indicator 19895
toured 19890
Kay 19889
ep 19889
unite 19888
ballistic 19884
zoo 19884
Nur@@ 19881
invented 19879
Andreas 19877
elegant 19876
Hai@@ 19874
Pop@@ 19874
skaya 19872
Vic@@ 19871
ares 19866
refrain 19865
curious 19864
pumping 19863
bud@@ 19860
measuring 19860
subprime 19856
slipping 19854
constructed 19854
sensitivity 19853
tter 19851
Pirates 19850
disagreed 19849
uro@@ 19849
ician 19848
farther 19843
pho@@ 19843
speculated 19839
whales 19839
Mik@@ 19838
organs 19837
wasted 19832
charities 19829
4.1 19828
warehouse 19823
abi 19823
Gir@@ 19822
Mea@@ 19817
deteriorating 19816
Reuters 19815
Cal 19814
Had 19814
duck 19809
Tutsi 19807
More@@ 19806
Heart 19805
MS 19805
260 19805
altered 19805
Len@@ 19803
ridden 19801
Fle@@ 19799
timed 19791
eral 19784
repression 19784
Megawati 19779
focuses 19776
aided 19770
Jamal 19764
stop@@ 19764
Jacobs 19763
oming 19762
mud@@ 19757
disc 19756
semi@@ 19755
bon 19752
finishes 19746
strikers 19745
Empire 19740
Turin 19740
Kinshasa 19739
Add 19730
reas@@ 19729
triggering 19725
alling 19725
dit 19722
Rai@@ 19722
anticipation 19721
-G@@ 19720
ounds 19720
dine 19719
enhanced 19719
2,0@@ 19714
illnesses 19713
ski@@ 19710
Glen 19706
unfortunately 19702
consult 19701
firearms 19697
worsening 19697
Blix 19697
volley 19696
pork 19695
kas 19693
forthcoming 19688
IC 19687
novels 19682
proposing 19682
substances 19672
Barney 19670
Java 19665
trap 19663
1-3 19663
life-@@ 19659
honour 19659
abst@@ 19658
five-day 19658
middle-class 19656
solving 19656
Across 19655
pour 19654
industrialized 19648
chickens 19647
ID@@ 19646
grace 19645
eder@@ 19642
H5N1 19640
Wings 19639
programmes 19636
V-@@ 19634
Sebastian 19632
recruits 19632
profitability 19629
Sz@@ 19628
smallest 19625
dar 19623
sex@@ 19622
thi@@ 19621
forensic 19620
nightclub 19618
alu@@ 19617
sacred 19615
ested 19612
broadly 19612
encountered 19611
ucci 19609
24-hour 19609
1,400 19609
enters 19603
Harare 19599
Pon@@ 19597
1950 19594
objectives 19593
Att@@ 19593
feat 19592
stock@@ 19590
nasty 19585
teen-agers 19585
seasonal 19584
physicians 19583
Otherwise 19580
Fifth 19579
ounded 19576
Discovery 19575
Andre@@ 19575
volcano 19569
5.4 19568
Rachel 19567
teaches 19566
Burke 19561
Shah@@ 19561
preseason 19560
passionate 19559
100@@ 19559
unbelievable 19559
statute 19558
competitions 19558
sah-@@ 19553
relax 19550
Gene 19550
Kay@@ 19549
tos 19546
alise 19544
transfers 19543
clinch 19542
age-@@ 19541
fortunate 19541
anim@@ 19539
Hicks 19537
pvs 19536
ideological 19535
mode 19533
Kurt 19531
Vis@@ 19530
Reyes 19526
Jacob 19522
Bombay 19522
merge 19521
knocking 19519
air-@@ 19519
presumably 19518
deposit 19517
Gilbert 19513
MS@@ 19511
Sabah 19510
Sprint 19509
neg@@ 19508
communists 19508
Lynn 19502
Kle@@ 19501
h-M@@ 19499
dome 19497
wherever 19496
Suns 19496
accidentally 19494
copyright 19493
Beyond 19488
cia 19477
est-@@ 19472
IP@@ 19468
references 19466
taped 19464
dling 19463
Kemp 19461
5.2 19456
Newman 19456
nic@@ 19454
smiled 19452
Lindsay 19449
wheels 19443
leton 19441
starred 19441
super-@@ 19439
bin@@ 19438
uda 19438
Mai@@ 19424
Sunderland 19423
seniors 19421
Nike 19421
acquiring 19419
enforced 19415
reunification 19414
Nokia 19414
imagination 19412
downgraded 19411
dul@@ 19411
er-than-expected 19411
sub-@@ 19409
biography 19408
ber-@@ 19405
Khal@@ 19404
proclaimed 19403
crashes 19402
clerk 19398
Og@@ 19397
MP@@ 19396
san 19395
rat 19392
supposedly 19391
speeds 19389
Cass@@ 19386
secrecy 19385
UP@@ 19383
Tajikistan 19381
forge 19379
Clo@@ 19377
positioned 19376
late-@@ 19375
environmentalists 19369
Foley 19368
automobile 19368
thrilled 19368
Mach@@ 19367
Princeton 19365
num@@ 19362
lender 19361
kg 19361
innovation 19360
ais 19358
4-year-old 19357
respiratory 19355
UAE 19354
Rah@@ 19352
side@@ 19347
All-@@ 19345
Aj@@ 19344
containers 19343
reader 19341
dairy 19336
nit@@ 19334
McGwire 19333
Violence 19332
5.3 19325
assaults 19322
advisor 19320
bed@@ 19316
Dominique 19315
vacant 19314
rift 19311
elled 19311
Kyle 19309
Amin 19308
Tex@@ 19304
undermined 19304
customary 19300
profit-taking 19299
Madonna 19295
homicide 19289
enriched 19279
py@@ 19279
best-@@ 19278
Kirkuk 19277
airplanes 19275
installation 19275
inherited 19275
ordeal 19272
Cher@@ 19270
intelligent 19266
Bayer 19266
enabled 19262
skepticism 19260
Porto 19260
sunny 19258
American-Statesman 19253
fron@@ 19250
collided 19246
Spring 19243
Silicon 19242
Six@@ 19239
lips 19237
handles 19237
equities 19236
Chin@@ 19231
tives 19223
fitted 19216
potent 19214
Morrison 19214
thood 19212
Wea@@ 19211
Yak@@ 19210
Maurice 19205
lad@@ 19205
icker 19204
Hoo@@ 19204
grid 19203
vary 19200
second-quarter 19198
Housing 19195
sink 19192
disagreement 19190
promptly 19185
reinforced 19181
var@@ 19179
destined 19178
waging 19177
Bis@@ 19176
clan 19174
duc@@ 19173
Scho@@ 19173
successes 19170
gent 19170
spi@@ 19169
Freeman 19169
relies 19168
regulate 19167
Pakistanis 19166
Sonics 19163
experiencing 19162
gh 19153
pad 19151
transported 19150
millionaire 19147
13,000 19145
Jenin 19145
accomplish 19143
5.7 19142
publications 19128
dive 19122
heal 19120
NEWS 19117
Gin@@ 19110
exploring 19109
taxpayer 19106
uri 19104
hit@@ 19102
Yesterday 19102
Brisbane 19099
ffy 19099
Mack@@ 19099
orchestra 19099
vendors 19097
Blo@@ 19095
Rao 19094
Allan 19094
dg@@ 19093
sh-@@ 19093
slam 19090
Zambia 19090
Pavel 19086
tighter 19085
ens@@ 19085
stark 19084
Bremen 19081
condolences 19079
mosques 19079
elementary 19077
clubhouse 19077
exporter 19075
Bron@@ 19075
Hayes 19065
Diaz 19064
ians 19063
ken@@ 19060
decision-making 19059
Lap@@ 19052
Moss 19051
verbal 19046
Tower 19044
Seles 19041
BUSINESS 19040
TION 19039
chim@@ 19036
ili 19036
Creek 19035
Scar@@ 19032
tively 19032
Will@@ 19031
anos 19030
1953 19025
2020 19022
AIG 19022
0-1 19018
Teresa 19016
practicing 19010
casual 19010
sniper 19010
Hoffman 19010
MALAYSIA 19009
ader 19007
59.@@ 19005
pardon 19004
stir 19000
year@@ 19000
Singles 18998
ravaged 18997
1/2 18989
poisoning 18987
tak@@ 18987
eness 18986
RA 18986
ku 18986
vich 18985
dishes 18981
rod 18981
Arlington 18981
inmate 18978
-in 18978
nickname 18978
lodged 18977
go-@@ 18974
faded 18972
relegation 18972
Sterling 18967
cow@@ 18966
Bern@@ 18966
billed 18965
accordance 18963
nes 18957
beck 18955
Sup@@ 18950
deter 18946
patrolling 18945
rying 18944
recognised 18942
DP 18940
14-year-old 18936
part-time 18926
bowlers 18925
Yukos 18923
TH 18919
30s 18919
buildup 18911
lovers 18910
280 18908
happiness 18905
Ax@@ 18904
dow@@ 18902
Rhode 18900
mask 18895
2-6 18895
11,000 18894
hk 18892
EED 18892
elev@@ 18890
Auckland 18889
musician 18888
Portsmouth 18888
Gas@@ 18882
Pit@@ 18879
hikes 18876
appointments 18872
proves 18870
stretching 18869
K-@@ 18867
outbreaks 18866
yacht 18865
superstar 18863
kova 18861
reassure 18855
70@@ 18854
Lak@@ 18849
dist@@ 18846
Qaeda 18845
E.@@ 18843
Nabil 18843
eye-@@ 18840
unarmed 18837
rang 18835
ave 18835
MAR@@ 18834
occurs 18832
maps 18828
autopsy 18826
len 18824
Books 18823
que@@ 18823
tycoon 18819
unleashed 18819
chur@@ 18816
Shakespeare 18815
ruined 18810
undercover 18809
Gon@@ 18808
Kaczynski 18808
stimulate 18806
Marion 18803
servicemen 18801
Nice 18799
Caracas 18797
eer 18796
5-2 18796
Lieutenant 18793
gated 18790
specifics 18788
airs 18786
Hill@@ 18784
container 18782
privilege 18776
12-year-old 18775
raged 18770
fatally 18767
besides 18763
Pick@@ 18762
emo@@ 18762
poetry 18761
Zen@@ 18758
Rev@@ 18756
monarch 18753
intentionally 18751
Dolphins 18751
flurry 18749
packing 18742
Chevrolet 18741
Packers 18739
Davi@@ 18739
Mueller 18738
companion 18737
Latino 18737
moo-@@ 18736
Cancer 18735
9/11 18734
shutout 18731
postal 18730
sway 18725
Cob@@ 18722
Nonetheless 18722
N. 18722
similarly 18719
dose 18719
recipe 18716
edited 18715
Gat@@ 18713
32-year-old 18710
bullpen 18709
gel 18705
Summit 18702
linger 18701
chaotic 18700
wash 18694
acious 18693
ideology 18692
lic 18691
stint 18686
murdering 18684
alities 18681
athletics 18679
prints 18678
criticize 18677
concession 18677
Mobile 18677
Ellen 18674
steering 18671
expire 18670
borrowed 18667
Trafford 18660
albums 18659
simul@@ 18658
aling 18658
defeats 18658
hiro 18658
bah@@ 18657
Greater 18655
licensing 18651
minim@@ 18646
recordings 18646
blank 18641
troubling 18640
88@@ 18639
BI@@ 18637
PE@@ 18636
145 18634
,0@@ 18633
Report 18628
aggregate 18624
2.0 18620
ok@@ 18619
countless 18617
Pot@@ 18615
game-@@ 18615
ues 18613
condemning 18612
Dj@@ 18611
Haj@@ 18610
aggravated 18608
pumped 18607
Gay 18601
delaying 18601
Lahore 18599
erie 18598
TE 18591
Tomas 18589
repay 18589
Mali 18588
throne 18586
Bed@@ 18585
Ferdinand 18583
digging 18579
Sorenstam 18579
accelerated 18578
iny 18575
lyrics 18570
astic 18570
mergers 18567
warring 18562
bling 18561
Medi@@ 18558
ste 18556
an-American 18556
two-week 18556
Sandra 18554
grandson 18553
applicants 18548
inquiries 18548
oe 18546
boasts 18539
Yeah 18539
Stor@@ 18539
rooted 18535
applauded 18534
speeding 18533
koh 18532
essly 18530
Ponting 18529
suing 18525
Strategic 18520
bath 18518
tham 18516
qualities 18513
hefty 18504
Wall@@ 18503
Brig. 18498
Dav@@ 18497
balloon 18492
CI 18492
punitive 18490
crashing 18487
clergy 18487
harmful 18486
dip 18485
locally 18481
distributing 18481
owe 18478
distress 18476
Harrington 18475
hurled 18472
protestors 18467
UC@@ 18466
BL@@ 18466
salvage 18461
limitations 18460
Tan 18456
mac@@ 18453
eur 18451
speculate 18450
spree 18448
fours 18446
ship@@ 18446
Yorkers 18446
chart 18445
heir 18445
Rain@@ 18445
experimental 18443
insurer 18442
KS 18442
Crystal 18439
profession 18436
kie 18435
Phelps 18434
ate-@@ 18427
camp@@ 18427
slo@@ 18426
33@@ 18424
UT 18420
inal 18411
Boutros-Ghali 18408
Newswires 18408
ligh@@ 18403
abruptly 18399
Okinawa 18398
Girl 18394
blanket 18393
placement 18392
Julian 18392
partnerships 18391
ground@@ 18388
conscience 18387
Lon@@ 18387
MON@@ 18387
controllers 18386
Voters 18385
barring 18385
Fulham 18381
wel@@ 18380
advise 18380
ambition 18377
sequ@@ 18377
ounding 18375
Make 18374
practiced 18373
appetite 18372
b-@@ 18371
eder 18370
legi@@ 18370
wines 18368
4.9 18368
Undated 18367
Waugh 18364
unwilling 18364
innovative 18363
Denis 18362
Lor@@ 18362
sah@@ 18362
108 18359
VE 18357
agu@@ 18356
slogan 18356
angrily 18355
distinction 18355
bitterly 18354
dried 18353
exploit 18353
Levin 18350
tioned 18346
ilo 18346
acknowledges 18344
Harlem 18340
misleading 18337
tuition 18336
Presidential 18336
provocative 18336
Wong 18336
ewed 18333
Bac@@ 18333
70-@@ 18329
aluminum 18327
Dom@@ 18324
wells 18324
spir@@ 18323
reinforce 18323
wre@@ 18322
Nature 18321
minors 18319
abortions 18317
dea@@ 18315
Chang@@ 18315
Kumar 18314
Dead 18313
Ramon 18311
Talks 18310
commanding 18308
ped@@ 18307
pouring 18306
zo@@ 18301
hara 18297
Guardian 18296
convened 18291
Lawmakers 18290
milestone 18289
tte 18288
kick@@ 18284
Gramm 18280
Tas@@ 18279
Cypriots 18279
Asi@@ 18278
cooked 18274
networking 18272
Toledo 18271
360 18269
leverage 18268
ritual 18267
natur@@ 18266
re-elected 18265
dan 18260
opol@@ 18260
spor@@ 18258
soap 18256
jud@@ 18255
documented 18254
sail 18252
stee@@ 18250
nets 18249
supplying 18247
dled 18244
Celsius 18243
cartoon 18243
peoples 18243
strains 18243
logo 18238
wished 18236
scholar 18236
poster 18232
connecting 18230
scholarship 18230
Steelers 18230
Was@@ 18230
toilet 18228
premiums 18225
ART 18225
Daly 18225
volatility 18225
mad@@ 18224
affirmative 18224
ault 18223
cultures 18222
Lei@@ 18221
bets 18220
instances 18218
ub 18218
Bar 18215
bie 18214
hir 18213
Iri@@ 18209
shar@@ 18205
trauma 18202
thigh 18201
loyalists 18196
advertisers 18192
Dul@@ 18191
gus 18191
onia 18191
circum@@ 18190
psychiatric 18189
Carr 18189
steroids 18187
Broad@@ 18187
nish 18186
accountability 18183
56.@@ 18181
Thor@@ 18178
bureaucracy 18177
Earnhardt 18173
Mou@@ 18173
SU@@ 18171
Khamenei 18168
3-pointer 18168
Phillies 18167
acking 18166
112 18166
applies 18163
Bogota 18163
Say@@ 18159
Leading 18156
Hispanics 18153
NA 18152
rn 18150
Aqu@@ 18148
Griffin 18146
Lac@@ 18146
Abkhazia 18146
ation-@@ 18144
azi 18141
capturing 18141
Moo@@ 18140
alerted 18138
pairs 18137
doses 18136
cheers 18133
caring 18128
evolved 18122
travelled 18116
alleges 18112
batted 18112
blunt 18108
Jacksonville 18105
Dana 18104
locate 18104
tick 18101
1.25 18100
Smo@@ 18099
terrific 18097
fat@@ 18096
dev@@ 18094
Ugandan 18092
Lem@@ 18090
consciousness 18086
pornography 18085
Waziristan 18080
epic 18079
metals 18074
relentless 18072
prostitution 18071
distinct 18071
5.8 18070
asses 18069
Sn@@ 18066
Again 18065
ork 18062
Use 18062
ence-@@ 18061
tac@@ 18060
Mickey 18056
und 18054
Shu@@ 18053
Fiorentina 18052
spacecraft 18052
Investigation 18051
coupled 18051
threshold 18048
-C@@ 18048
Bundesbank 18046
UL@@ 18043
shortstop 18043
36-@@ 18042
Const@@ 18040
cancellation 18039
diverted 18039
rugged 18029
translated 18025
spilled 18024
check@@ 18024
,500 18022
housed 18021
rides 18021
juvenile 18020
diminished 18020
spared 18020
Hayden 18017
answering 18015
Bren@@ 18014
Fac@@ 18010
Officers 18010
drum 18007
80@@ 18007
lobbyists 18006
readiness 18002
Woodward 18002
battlefield 18000
old-@@ 17999
quarter-finals 17999
protections 17993
viral 17993
Lionel 17992
rested 17990
timely 17989
bunker 17987
Clijsters 17987
goers 17984
Cable 17976
lings 17976
disruption 17975
countered 17975
donation 17974
197@@ 17969
Haas 17966
Laos 17965
Culture 17965
grades 17964
Real@@ 17963
corps 17961
centrist 17960
31-year-old 17959
99.@@ 17959
departed 17957
Srinagar 17957
year-olds 17955
aks 17954
34-@@ 17951
lem 17951
KE@@ 17949
influx 17945
emotionally 17945
Warne 17945
Tyler 17942
disk 17937
Perot 17936
entertaining 17930
404-526-5456 17925
donate 17923
persecution 17921
tus 17916
Photos 17914
Mozambique 17912
franc 17909
defining 17903
Quinn 17898
DaimlerChrysler 17896
Telekom 17894
Tucker 17890
Growth 17887
unrelated 17883
mun@@ 17883
tici@@ 17882
Motorola 17880
consists 17879
Mountains 17879
Abdel@@ 17878
awaited 17876
Fahrenheit 17874
Bus@@ 17873
reluctance 17870
not@@ 17867
euro3 17867
dental 17864
sno@@ 17863
encies 17862
whale 17859
Fidelity 17857
merged 17856
FL@@ 17853
deserted 17852
vicious 17851
tol@@ 17847
Ow@@ 17847
Ebola 17846
cheer 17845
shan 17845
McCurry 17842
som@@ 17839
sabotage 17839
sky@@ 17835
700,000 17834
tar 17833
thre@@ 17833
reveals 17833
div@@ 17832
intervened 17829
37-@@ 17828
Carey 17828
sob@@ 17823
3-year-old 17822
cease 17821
Parks 17821
electr@@ 17820
Cir@@ 17820
symbols 17820
EURO 17817
reaffirmed 17814
slept 17813
spurred 17811
ope 17811
consumed 17810
escalated 17810
CI@@ 17809
nationality 17808
wit@@ 17805
masked 17803
centimeters 17803
Travel 17799
Alice 17798
Cent@@ 17796
nick 17795
Kw@@ 17795
wrestling 17794
rol@@ 17793
airliner 17790
Work 17789
prevail 17789
ashi@@ 17783
plunging 17783
finalists 17780
worsened 17776
boo 17776
aying 17776
paralyzed 17775
155 17772
overlooking 17769
assaulted 17767
ago@@ 17767
'60s 17761
Actually 17758
pains 17755
Rein@@ 17754
Tobacco 17752
horrific 17748
Sharapova 17747
fiercely 17745
Sham@@ 17744
lander 17744
constitute 17744
governed 17741
a.@@ 17741
Half 17740
ached 17738
Bad 17736
Farm 17734
U-@@ 17733
plots 17731
pistol 17730
ultra-@@ 17729
Cub@@ 17728
Band@@ 17723
Shan@@ 17719
raging 17713
clout 17713
hou@@ 17712
confirming 17710
Fall 17710
after@@ 17706
liberties 17705
Borders 17702
cows 17697
Tutsis 17696
Dick@@ 17692
abide 17691
conditioning 17691
psychologist 17691
worship 17689
highest-@@ 17685
yl 17681
extradited 17678
Data 17678
employ 17677
bach 17677
warheads 17674
Jac@@ 17671
zel 17670
dragging 17670
outrageous 17669
arresting 17668
retreated 17668
improper 17667
Singer 17666
two-hour 17665
part@@ 17664
Sultan 17657
lef@@ 17656
aly 17655
Thanks 17654
Chi 17653
news@@ 17652
320 17652
codes 17651
locks 17651
xi 17651
Nasser 17649
mes@@ 17649
sers 17648
Macau 17646
Osaka 17645
O.J. 17643
sar@@ 17642
freight 17642
barrage 17640
foreign-@@ 17640
hammered 17639
shrink 17639
Tendulkar 17637
healing 17636
eded 17636
cups 17631
Newton 17630
Hawks 17627
Diane 17623
boycotted 17620
How@@ 17620
gloves 17619
Commercial 17619
wildly 17619
Thank 17618
1,100 17615
ags 17607
Beit 17601
gradual 17600
58.@@ 17600
marching 17599
helm 17595
carved 17590
Sporting 17582
processes 17580
watches 17579
L'@@ 17579
Archbishop 17578
AB 17576
vanished 17573
ulated 17572
accustomed 17568
Chan@@ 17568
Technologies 17568
atively 17567
acked 17566
CR@@ 17566
Jerome 17564
strang@@ 17562
manslaughter 17559
OT 17554
commentator 17551
Digital 17549
metre 17549
Gur@@ 17546
bodyguards 17545
slavery 17545
drums 17544
Zapatero 17543
regards 17541
Bin 17538
commandos 17537
abe 17535
poison 17534
Holyfield 17534
Fourth 17532
fresh@@ 17532
Freddie 17531
Opponents 17527
Liber@@ 17524
Macedonian 17524
nephew 17523
homemade 17520
bothered 17520
ADDS 17519
Zia 17518
Gy@@ 17515
Eg@@ 17511
long-running 17510
acion 17510
aligned 17508
nearest 17507
Hak@@ 17504
75,000 17504
clean@@ 17500
defied 17499
107 17498
emphasize 17497
pilgrimage 17496
Beth 17496
commissions 17494
Marc@@ 17490
steer 17489
composer 17489
jackets 17488
stall 17487
casinos 17484
millennium 17484
Bes@@ 17483
Xi@@ 17480
ranged 17479
Cle@@ 17475
aters 17473
Zuma 17471
stand@@ 17466
drastic 17465
Islamists 17463
fog 17460
unfairly 17460
DC 17459
32.@@ 17459
Girls 17457
lighter 17457
Damon 17457
Hugh 17457
lock@@ 17455
py 17455
anni@@ 17454
adopting 17446
buff@@ 17444
coun@@ 17443
Lavrov 17443
laptop 17442
astro@@ 17440
door@@ 17438
under-par 17438
loading 17428
der-@@ 17424
luggage 17422
Tens 17421
finale 17421
Constitutional 17421
Pun@@ 17415
rejects 17414
Playing 17414
Papua 17414
itable 17412
supervised 17410
25th 17409
Petraeus 17407
aspirations 17407
AFC 17403
sophomore 17401
glove 17400
Beat@@ 17397
pivotal 17394
touted 17392
theories 17391
tackling 17390
Cuomo 17389
sack 17387
omin@@ 17385
Sevilla 17382
Daniels 17381
Eugene 17380
vacuum 17380
undermining 17380
questi@@ 17378
third-largest 17370
silly 17369
Ana 17367
Squ@@ 17365
motorists 17363
itate 17360
Andres 17359
KAH 17359
facilitate 17358
palm 17358
Wars 17355
convene 17353
communique 17352
gaps 17350
pine 17346
106 17345
fuels 17342
Yevgeny 17342
recognise 17341
JAKARTA 17341
calories 17336
consultants 17335
s.com 17335
stressing 17335
suited 17334
livestock 17332
shortfall 17329
breeding 17324
13-year-old 17322
lev@@ 17320
illicit 17319
smuggled 17314
presumed 17314
custom@@ 17312
Cardiff 17306
clearance 17304
block@@ 17304
small-@@ 17303
Arabian 17302
Louise 17301
apiece 17298
righ@@ 17298
resistant 17295
Tung 17294
mentor 17294
quota 17294
till 17293
verse 17293
Donna 17293
blueprint 17293
Something 17290
photography 17288
caretaker 17287
sums 17287
addiction 17286
Tourism 17285
broad@@ 17282
serial 17281
111 17279
slapped 17277
Gross 17273
salmon 17272
CE 17272
pounded 17267
mourners 17264
weird 17263
accusation 17262
irresponsible 17260
resource 17258
liberation 17256
Yun@@ 17254
aerial 17253
57.@@ 17253
FCC 17252
flavor 17251
front-@@ 17248
robbed 17248
treasury 17246
zen@@ 17245
EDITORS 17242
twisted 17239
treason 17237
imagined 17236
cleanup 17233
explicit 17231
tendency 17231
Mohamad 17229
dig@@ 17226
kman 17224
backward 17222
Ruiz 17220
albeit 17215
assurance 17215
Merck 17215
dow 17209
voc@@ 17208
16,000 17208
roll@@ 17204
Head 17201
concede 17197
ium 17197
Scot@@ 17194
fon@@ 17190
fundamentals 17189
Augusta 17188
rom@@ 17188
18,000 17183
migration 17182
SL@@ 17181
gul@@ 17180
overly 17180
powerhouse 17180
Kyodo 17179
Paulson 17178
war-torn 17177
unted 17177
refers 17177
rick@@ 17172
inflicted 17168
scrambling 17168
Economics 17168
scrapped 17167
Briton 17165
acknowledging 17165
crippling 17164
Mitch 17161
CH 17159
ints 17158
Veterans 17157
Gerard 17156
'70s 17155
massacres 17154
2-year-old 17153
elec@@ 17153
Shea 17151
Caroline 17150
pandemic 17148
-style 17147
adapt 17144
mast@@ 17143
groin 17141
30.@@ 17140
Serb-held 17140
5-7 17137
medium-@@ 17136
hm 17136
looted 17133
hunters 17133
CS 17132
OS 17126
hypo@@ 17125
smoothly 17122
gal 17122
Martina 17122
abusing 17120
esses 17119
road@@ 17118
INS 17118
rah-@@ 17117
stretches 17116
open-@@ 17116
dismal 17114
Nicaragua 17114
generic 17113
inno@@ 17112
fractured 17112
33.@@ 17109
breakup 17108
Sunnis 17105
fabric 17104
bia 17101
Paula 17099
Taking 17099
Abbott 17097
eon 17089
Behind 17085
GO 17083
elevated 17080
Radovan 17077
bust 17074
cockpit 17074
chard 17070
T-shirt 17069
reasonably 17069
9-year-old 17068
diagnosis 17068
Chinese-@@ 17067
Brad@@ 17064
wipe 17062
tionary 17059
Suarez 17058
spun 17055
chaired 17054
Bears 17052
touches 17051
sideline 17051
vigorously 17048
Sky@@ 17045
tough@@ 17043
Edmonton 17039
Chung 17038
CDs 17036
!@@ 17036
lis 17034
turnovers 17034
Gru@@ 17033
catastrophic 17032
utes 17032
sures 17031
oration 17028
Bell@@ 17027
Remember 17025
expose 17025
scrambled 17024
foundations 17023
pig@@ 17022
Cour@@ 17022
Kim@@ 17022
anism 17020
restive 17016
processed 17013
step@@ 17012
crimin@@ 17012
showcase 17011
Working 17010
Sharks 17009
destructive 17009
Fir@@ 17008
siblings 17002
arti@@ 17001
spray 17000
Nash 16999
cinema 16999
nevertheless 16994
Gonzales 16993
Vaughn 16993
pause 16991
Newsweek 16989
Goran 16989
rout 16988
Alvaro 16987
squads 16986
DAX 16986
on-line 16981
Heritage 16979
charitable 16979
great-@@ 16978
smugglers 16975
convenience 16974
Think 16973
needing 16972
equality 16972
sier 16970
BB@@ 16968
severed 16965
logic 16964
abad 16962
upside 16961
Padres 16961
blend 16960
prosperous 16960
GM@@ 16958
1956 16957
organizer 16957
shing 16957
Equ@@ 16955
reckless 16954
Fox@@ 16952
Lom@@ 16949
lawn 16948
Bull 16947
ections 16946
disperse 16944
fiery 16942
jam@@ 16940
goodwill 16938
leveled 16937
aba 16937
oney 16936
yielded 16934
ache 16931
filmmaker 16931
physics 16930
cluster 16929
punched 16929
ayev 16927
14,000 16926
33-year-old 16924
mea@@ 16924
inged 16922
sailed 16919
blows 16919
Step@@ 16918
ories 16917
motives 16916
flagship 16912
plug 16911
Brotherhood 16906
ature 16905
Tax@@ 16901
Hartford 16900
Yuri 16898
Pen 16898
Lun@@ 16897
regular-season 16896
sequence 16894
low-cost 16891
Gutierrez 16890
enduring 16889
Cesar 16888
Agu@@ 16888
Schmidt 16887
Days 16886
spaces 16882
Hob@@ 16881
eous 16877
kilogram 16873
MC 16872
stumbled 16870
Wilkinson 16868
discourage 16867
specialty 16866
engineered 16866
Yi@@ 16866
ket 16865
Fitzgerald 16865
Twins 16862
Colts 16862
safeguard 16859
democr@@ 16859
bypass 16858
associations 16857
amed 16857
Senators 16857
essence 16856
Camp@@ 16855
mortars 16854
ec 16854
hostility 16853
undecided 16852
ono 16852
Richter 16851
Day@@ 16850
inevitably 16849
awkward 16849
portable 16847
1,800 16847
Dunn 16845
Brunei 16843
'80s 16842
por 16840
hang@@ 16839
slave 16839
hurts 16838
Baath 16838
Fleet 16832
Ori@@ 16830
onist 16828
'90s 16828
traced 16824
zan 16815
stry 16813
Lud@@ 16812
recognizes 16812
cio 16809
Kraft 16809
7/@@ 16808
shower 16807
low-income 16806
ring@@ 16806
poorer 16802
ides 16798
consulted 16795
1.6@@ 16794
three-game 16792
defiant 16788
Jal@@ 16788
internet 16787
overturn 16786
Galaxy 16785
R.@@ 16784
certainty 16784
cracking 16781
pledging 16780
rix 16780
Tiananmen 16776
1958 16775
procession 16772
ringing 16771
eno 16771
Earl 16768
17,000 16767
meltdown 16763
Primakov 16763
interactive 16762
Blatter 16760
Berger 16760
Dut@@ 16759
seven-year 16754
exotic 16750
forwards 16749
Vill@@ 16748
thr@@ 16747
grow@@ 16746
Someone 16743
Berry 16742
Read 16741
Christianity 16740
inst@@ 16739
amba 16739
Come 16738
Ulster 16738
populist 16734
offseason 16734
Province 16733
Room 16731
consolidate 16729
CD@@ 16726
lap@@ 16726
MVP 16725
bang 16720
announcements 16718
widening 16715
EP@@ 16714
Owens 16713
summary 16712
Domin@@ 16712
Bahamas 16712
Han 16710
appreciated 16707
mon 16706
35-year-old 16705
chambers 16704
backhand 16704
revered 16700
fif@@ 16700
dging 16695
Nic@@ 16694
bt 16694
ppy 16690
perpetrators 16689
disciplined 16686
impe@@ 16685
Lind@@ 16683
underlined 16683
historians 16679
Rivers 16679
Berg@@ 16677
oon 16676
uso 16673
esc@@ 16672
Maoist 16672
obtaining 16672
Allawi 16670
kowski 16669
asi@@ 16667
biting 16664
disagreements 16664
Edgar 16664
Luther 16663
quo@@ 16658
get-@@ 16658
Allied 16658
burger 16654
tman 16653
positively 16650
mouse 16650
sporadic 16647
Wool@@ 16647
rallying 16646
Kids 16643
Call@@ 16638
38-@@ 16638
interrup@@ 16636
Lagos 16636
ennial 16635
rocky 16632
Zu@@ 16632
preference 16627
pontiff 16626
eem 16625
petrol 16625
Internal 16624
farewell 16623
renewal 16623
enson 16622
preserved 16620
Bob@@ 16619
Beck 16618
slice 16616
Kibaki 16614
Lockheed 16608
cane 16605
Rudd 16598
rine 16598
McL@@ 16598
follow-up 16597
onom@@ 16592
routed 16590
owes 16590
Bristol 16590
telecom 16590
Ray@@ 16588
spec@@ 16586
light-@@ 16586
professors 16585
Ear@@ 16585
welcoming 16584
acher 16578
day-to-day 16577
gays 16576
repeal 16576
Kit@@ 16573
captive 16569
Hansen 16567
intimate 16565
author@@ 16565
Row@@ 16563
Nai@@ 16562
Vir@@ 16555
comfortably 16554
jan@@ 16554
ids 16551
rad@@ 16547
pill 16545
best-selling 16540
itors 16538
Dah@@ 16536
Naj@@ 16533
dismantling 16529
ridge 16527
doomed 16527
sty@@ 16525
Rasmussen 16524
allege 16517
tain 16514
IB@@ 16513
click 16512
contempt 16510
Juppe 16509
Lin 16508
iter 16507
Hurricanes 16501
thrust 16498
Tournament 16496
Ernie 16496
raft 16493
113 16484
clever 16482
staggering 16478
envoys 16477
Olivier 16477
urs@@ 16475
Modern 16475
tales 16473
dians 16473
clam@@ 16472
omo 16472
soup 16471
staffers 16469
Salomon 16469
Cin@@ 16469
Eleven 16468
Electoral 16464
Yangon 16463
obliged 16461
outcry 16458
Rock@@ 16458
lesbian 16456
reformist 16454
Match 16452
merit 16451
Nad@@ 16449
circulated 16449
charts 16447
consultation 16447
candy 16447
busiest 16446
Ball 16444
EU-@@ 16443
dissolved 16439
eBay 16438
yi 16438
Video 16437
insider 16437
switching 16436
ilia 16436
Gel@@ 16434
Gha@@ 16433
chron@@ 16432
Urban 16431
John@@ 16430
Could 16427
UNICEF 16426
Saudis 16426
Spart@@ 16425
Det@@ 16424
Mae 16423
mediators 16423
Back@@ 16420
ample 16416
Thatcher 16415
Volume 16413
ock@@ 16412
Kru@@ 16411
ancing 16411
1944 16409
stating 16405
bordering 16404
day-@@ 16404
sponsorship 16402
ization 16400
ato@@ 16399
kiss 16397
Middlesbrough 16396
adjustments 16395
Assistance 16394
power@@ 16393
clarify 16392
coins 16392
genetically 16390
FTSE 16389
Tripoli 16388
Roo@@ 16387
Al-Jazeera 16385
000 16383
hats 16381
seizing 16380
Exxon 16379
elders 16377
inda 16376
yuh 16376
Dixon 16375
atin 16375
Namibia 16371
fluid 16370
anic 16370
Les 16369
Rep@@ 16367
Sosa 16365
Lula 16365
Chemical 16362
cables 16362
frightened 16360
ICRC 16356
capitals 16351
morale 16351
centres 16349
atters 16349
go-ahead 16349
Leverkusen 16344
Lebed 16344
vans 16343
far-right 16341
Leslie 16340
dell 16340
pipes 16340
resorts 16340
Chechens 16340
lavish 16339
Nader 16337
Pa. 16326
Economy 16324
Strauss 16323
Conn@@ 16320
U.S.-backed 16318
Very 16316
ango 16314
Tudjman 16314
aux 16312
Reeves 16307
Jor@@ 16305
Kub@@ 16299
Mobil 16297
pretax 16297
iri 16294
3-3 16293
umi 16293
ion 16292
lessness 16289
Novak 16288
Syracuse 16287
affidavit 16283
Kathleen 16283
al-R@@ 16280
cornerback 16278
Tay@@ 16272
outnumbered 16272
quell 16271
TER 16271
borrowers 16271
arson 16269
sta@@ 16269
Julio 16267
French-@@ 16266
Akbar 16266
three-run 16266
run-@@ 16265
fort 16264
edges 16263
infamous 16263
implic@@ 16258
Hans@@ 16258
Indi@@ 16257
inviting 16256
1.0@@ 16255
Patrol 16254
Coo@@ 16254
sights 16254
contamination 16253
Waco 16252
Getting 16251
outline 16248
long@@ 16248
resid@@ 16246
junk 16246
Recently 16246
Canberra 16244
OC 16244
cell@@ 16243
pie 16241
accuracy 16240
old-fashioned 16239
ggy 16238
liners 16238
och@@ 16238
Shaun 16236
surprises 16235
edging 16233
Castle 16233
Lec@@ 16232
specializes 16230
flared 16227
pigs 16227
5-3 16226
5.1 16226
rewarded 16225
ackers 16222
blankets 16222
achi@@ 16220
bay@@ 16219
remark 16218
fulfilled 16217
Anatolia 16217
wielding 16213
boring 16208
Zedillo 16205
alistic 16199
entities 16196
Resistance 16191
textile 16186
slap 16184
outsiders 16183
Sac@@ 16182
Details 16177
ities 16176
jun@@ 16173
deteriorated 16172
Ortiz 16171
regrets 16170
aerospace 16170
acker 16170
nerves 16169
clip 16168
1957 16168
rewards 16168
counterterrorism 16165
anti-war 16160
----- 16160
slashing 16159
military-@@ 16159
McN@@ 16159
rulings 16158
teen-age 16156
laughter 16154
Norton 16153
DEE 16150
balloting 16148
Parents 16147
indul@@ 16145
Jeter 16139
heart@@ 16138
kle 16138
fledgling 16137
Travis 16137
Safin 16137
A&M 16137
El-@@ 16134
fatalities 16131
[...]
